<unk>	0
<s>	0
</s>	0
▁t	-0
▁a	-1
in	-2
he	-3
re	-4
on	-5
er	-6
▁s	-7
▁the	-8
▁w	-9
or	-10
nd	-11
at	-12
ou	-13
▁c	-14
it	-15
es	-16
▁f	-17
is	-18
ing	-19
en	-20
▁b	-21
▁p	-22
▁o	-23
an	-24
▁m	-25
▁to	-26
ed	-27
al	-28
▁and	-29
ar	-30
▁in	-31
▁of	-32
▁d	-33
le	-34
ic	-35
om	-36
▁h	-37
as	-38
▁I	-39
ion	-40
▁th	-41
il	-42
▁l	-43
▁T	-44
ent	-45
▁y	-46
ve	-47
ro	-48
▁n	-49
▁e	-50
st	-51
▁re	-52
▁g	-53
▁you	-54
ct	-55
et	-56
▁S	-57
▁is	-58
▁for	-59
▁A	-60
ly	-61
▁be	-62
ay	-63
▁C	-64
▁on	-65
ot	-66
id	-67
ow	-68
▁.	-69
us	-70
ol	-71
ce	-72
ra	-73
ch	-74
ver	-75
im	-76
ig	-77
ith	-78
el	-79
▁st	-80
ut	-81
ation	-82
▁with	-83
▁M	-84
ad	-85
am	-86
ur	-87
ir	-88
▁W	-89
▁that	-90
▁The	-91
▁P	-92
▁B	-93
▁it	-94
ill	-95
▁he	-96
▁al	-97
ter	-98
▁an	-99
ul	-100
▁pro	-101
▁are	-102
un	-103
▁ha	-104
ke	-105
oo	-106
▁H	-107
▁we	-108
ers	-109
if	-110
▁wh	-111
▁as	-112
ge	-113
out	-114
se	-115
our	-116
▁D	-117
▁F	-118
▁,	-119
▁com	-120
pp	-121
ess	-122
▁con	-123
▁at	-124
▁fr	-125
▁or	-126
est	-127
ate	-128
her	-129
ore	-130
▁E	-131
ment	-132
ab	-133
ck	-134
▁R	-135
▁ne	-136
▁your	-137
▁L	-138
▁ex	-139
op	-140
igh	-141
ld	-142
ort	-143
ure	-144
▁se	-145
▁1	-146
ant	-147
qu	-148
▁have	-149
ri	-150
ist	-151
▁2	-152
ity	-153
▁was	-154
▁v	-155
▁G	-156
▁N	-157
pe	-158
ive	-159
art	-160
▁de	-161
▁O	-162
▁can	-163
ust	-164
▁from	-165
▁this	-166
▁will	-167
um	-168
▁us	-169
▁(	-170
em	-171
▁sh	-172
ome	-173
ain	-174
ies	-175
▁by	-176
▁ch	-177
nt	-178
ud	-179
and	-180
▁r	-181
ie	-182
all	-183
os	-184
th	-185
up	-186
ard	-187
▁my	-188
▁wor	-189
ight	-190
▁le	-191
▁not	-192
▁ab	-193
res	-194
▁J	-195
▁su	-196
▁do	-197
ost	-198
▁pl	-199
▁Th	-200
od	-201
ide	-202
iv	-203
ial	-204
▁so	-205
te	-206
gh	-207
ak	-208
ap	-209
▁all	-210
ice	-211
rou	-212
▁me	-213
00	-214
ear	-215
▁j	-216
▁k	-217
ould	-218
ine	-219
ast	-220
age	-221
are	-222
ag	-223
▁has	-224
▁comp	-225
very	-226
ell	-227
ook	-228
▁our	-229
fe	-230
▁In	-231
ake	-232
ac	-233
ite	-234
▁en	-235
ry	-236
▁ad	-237
▁U	-238
able	-239
▁but	-240
ind	-241
ally	-242
lo	-243
hen	-244
ime	-245
ction	-246
ood	-247
per	-248
ip	-249
so	-250
one	-251
red	-252
ack	-253
▁It	-254
▁up	-255
ther	-256
ich	-257
▁Y	-258
du	-259
ong	-260
▁lo	-261
ated	-262
cc	-263
▁more	-264
▁out	-265
▁work	-266
ish	-267
▁te	-268
ail	-269
▁We	-270
▁about	-271
▁cl	-272
▁their	-273
▁im	-274
▁'	-275
ous	-276
ike	-277
▁man	-278
iz	-279
▁K	-280
for	-281
ign	-282
▁one	-283
ance	-284
ll	-285
ase	-286
pt	-287
▁cont	-288
▁time	-289
▁fe	-290
ach	-291
▁go	-292
erv	-293
ans	-294
▁20	-295
▁un	-296
ions	-297
▁qu	-298
ult	-299
▁they	-300
ib	-301
ace	-302
act	-303
▁inc	-304
▁off	-305
ass	-306
ia	-307
▁year	-308
▁This	-309
ire	-310
reat	-311
▁new	-312
▁res	-313
▁app	-314
▁sa	-315
ree	-316
▁which	-317
▁V	-318
und	-319
▁-	-320
ays	-321
ary	-322
ick	-323
▁like	-324
og	-325
▁also	-326
ame	-327
▁St	-328
ark	-329
▁sp	-330
ations	-331
ber	-332
vel	-333
▁who	-334
ue	-335
now	-336
ile	-337
▁Ch	-338
▁per	-339
ep	-340
▁get	-341
ents	-342
ount	-343
▁3	-344
▁some	-345
form	-346
ne	-347
▁other	-348
▁any	-349
ink	-350
ub	-351
ng	-352
ff	-353
▁spe	-354
▁part	-355
▁tra	-356
ven	-357
day	-358
▁pe	-359
▁201	-360
ings	-361
ence	-362
pl	-363
ical	-364
▁int	-365
cial	-366
..	-367
ition	-368
▁been	-369
▁am	-370
use	-371
▁them	-372
▁pr	-373
▁bec	-374
ors	-375
▁ro	-376
▁ar	-377
▁need	-378
ild	-379
▁his	-380
▁dis	-381
▁rec	-382
ress	-383
ru	-384
▁when	-385
ond	-386
▁"	-387
ough	-388
av	-389
▁over	-390
▁know	-391
▁imp	-392
▁sc	-393
▁there	-394
ang	-395
▁hel	-396
▁ag	-397
ool	-398
vers	-399
▁des	-400
▁col	-401
ople	-402
▁pre	-403
▁He	-404
▁“	-405
mer	-406
ound	-407
ning	-408
low	-409
irst	-410
▁help	-411
ater	-412
▁if	-413
▁stud	-414
▁serv	-415
ens	-416
▁acc	-417
▁very	-418
fter	-419
▁want	-420
▁than	-421
int	-422
▁her	-423
▁had	-424
wn	-425
ause	-426
▁people	-427
▁prov	-428
▁what	-429
▁just	-430
rough	-431
ord	-432
own	-433
lud	-434
ram	-435
▁make	-436
▁were	-437
▁would	-438
▁its	-439
▁how	-440
ory	-441
▁look	-442
▁You	-443
ob	-444
ren	-445
hed	-446
▁produ	-447
▁every	-448
▁Wh	-449
ices	-450
▁first	-451
▁comm	-452
▁bu	-453
▁add	-454
▁tr	-455
▁use	-456
itt	-457
oc	-458
ov	-459
▁tw	-460
ful	-461
▁If	-462
old	-463
here	-464
▁includ	-465
ces	-466
tern	-467
▁into	-468
lish	-469
rent	-470
▁4	-471
cts	-472
ft	-473
ual	-474
▁co	-475
▁`	-476
ious	-477
▁most	-478
▁well	-479
▁exper	-480
▁Eng	-481
▁good	-482
ons	-483
▁ph	-484
lic	-485
ian	-486
▁only	-487
▁5	-488
▁no	-489
ments	-490
▁through	-491
▁Re	-492
round	-493
les	-494
▁many	-495
ates	-496
▁und	-497
▁``	-498
oy	-499
▁ind	-500
ade	-501
▁bus	-502
je	-503
ities	-504
iness	-505
xt	-506
▁she	-507
▁supp	-508
▁As	-509
ks	-510
▁rep	-511
ict	-512
▁!	-513
▁bet	-514
any	-515
▁see	-516
ating	-517
ise	-518
▁under	-519
ily	-520
row	-521
▁ra	-522
▁because	-523
▁dif	-524
▁back	-525
▁now	-526
▁day	-527
ife	-528
iew	-529
ph	-530
we	-531
ose	-532
nds	-533
ange	-534
▁Ne	-535
ures	-536
▁home	-537
▁em	-538
▁years	-539
amp	-540
▁may	-541
▁said	-542
▁best	-543
ove	-544
▁after	-545
lect	-546
▁two	-547
oth	-548
ced	-549
als	-550
▁reg	-551
▁high	-552
chool	-553
ert	-554
ont	-555
▁English	-556
▁sm	-557
▁design	-558
▁ent	-559
▁these	-560
▁sy	-561
).	-562
▁cons	-563
ific	-564
▁–	-565
▁think	-566
ience	-567
fore	-568
▁loc	-569
▁great	-570
ational	-571
▁fin	-572
▁For	-573
▁ke	-574
▁start	-575
▁wr	-576
iss	-577
aking	-578
fect	-579
▁find	-580
urn	-581
bs	-582
ble	-583
get	-584
ased	-585
ting	-586
▁act	-587
▁&	-588
▁car	-589
▁rel	-590
uring	-591
▁could	-592
▁fam	-593
velop	-594
▁play	-595
▁Un	-596
▁frie	-597
vent	-598
▁Se	-599
▁dec	-600
cess	-601
ible	-602
ility	-603
uch	-604
ward	-605
▁way	-606
ract	-607
air	-608
▁19	-609
▁read	-610
lease	-611
hing	-612
▁inform	-613
▁Com	-614
▁gu	-615
aw	-616
erson	-617
ied	-618
ts	-619
▁too	-620
▁business	-621
▁So	-622
▁inst	-623
stem	-624
oss	-625
▁wee	-626
▁should	-627
ath	-628
hes	-629
olog	-630
▁av	-631
▁And	-632
▁ac	-633
ics	-634
com	-635
▁But	-636
▁Pro	-637
ustom	-638
▁even	-639
▁Al	-640
▁here	-641
▁ins	-642
ular	-643
omet	-644
▁inv	-645
▁rem	-646
▁sec	-647
▁take	-648
▁show	-649
▁own	-650
▁che	-651
▁set	-652
elf	-653
▁mon	-654
arn	-655
▁where	-656
hip	-657
▁long	-658
▁6	-659
▁min	-660
▁Be	-661
▁vis	-662
ork	-663
arch	-664
ys	-665
ative	-666
ality	-667
oint	-668
▁De	-669
▁8	-670
line	-671
ited	-672
▁call	-673
▁inte	-674
apan	-675
chn	-676
▁then	-677
ient	-678
its	-679
▁much	-680
▁br	-681
▁fl	-682
ty	-683
arket	-684
▁made	-685
alth	-686
erm	-687
▁An	-688
alk	-689
gan	-690
▁develop	-691
▁sk	-692
▁used	-693
ull	-694
atch	-695
gram	-696
▁right	-697
▁?	-698
ject	-699
▁world	-700
▁down	-701
▁Japan	-702
▁last	-703
▁requ	-704
▁information	-705
▁diffe	-706
▁There	-707
rest	-708
ank	-709
▁such	-710
ving	-711
ouse	-712
▁Sh	-713
ident	-714
▁provid	-715
▁sur	-716
cy	-717
ix	-718
▁$	-719
▁How	-720
ince	-721
▁custom	-722
io	-723
ower	-724
pect	-725
ese	-726
▁did	-727
▁cre	-728
ivers	-729
ax	-730
ale	-731
▁att	-732
▁life	-733
▁bl	-734
ner	-735
other	-736
▁person	-737
az	-738
me	-739
▁mem	-740
▁book	-741
▁art	-742
pr	-743
▁pres	-744
▁eas	-745
ages	-746
▁mod	-747
▁system	-748
▁before	-749
way	-750
▁love	-751
▁school	-752
land	-753
▁cur	-754
ener	-755
▁feel	-756
ved	-757
iting	-758
▁lot	-759
▁list	-760
ric	-761
▁avail	-762
akes	-763
▁New	-764
▁op	-765
▁comple	-766
▁7	-767
▁disc	-768
arm	-769
▁team	-770
▁trans	-771
▁gra	-772
ave	-773
▁support	-774
▁count	-775
▁)	-776
▁free	-777
▁care	-778
▁really	-779
▁Cl	-780
▁while	-781
▁10	-782
▁sim	-783
▁each	-784
),	-785
ci	-786
000	-787
▁post	-788
▁My	-789
oun	-790
▁prof	-791
▁commun	-792
ional	-793
▁To	-794
▁ass	-795
ather	-796
rib	-797
ash	-798
▁around	-799
ways	-800
ues	-801
▁company	-802
▁today	-803
▁det	-804
▁program	-805
▁fun	-806
olut	-807
ize	-808
ason	-809
▁med	-810
der	-811
▁Fr	-812
▁again	-813
ually	-814
▁exp	-815
▁don	-816
ives	-817
▁available	-818
▁child	-819
ros	-820
▁del	-821
led	-822
imes	-823
▁str	-824
▁num	-825
▁bo	-826
▁place	-827
ets	-828
au	-829
▁happ	-830
ining	-831
▁met	-832
▁techn	-833
▁service	-834
▁found	-835
▁On	-836
▁market	-837
▁form	-838
▁ed	-839
▁somet	-840
▁inter	-841
ever	-842
▁does	-843
▁top	-844
▁going	-845
▁ser	-846
▁though	-847
▁different	-848
ple	-849
ier	-850
de	-851
▁They	-852
▁When	-853
ollow	-854
▁lead	-855
▁Our	-856
▁Ar	-857
▁cour	-858
▁cle	-859
▁month	-860
▁being	-861
aut	-862
▁class	-863
gg	-864
▁end	-865
irect	-866
▁cr	-867
▁using	-868
read	-869
▁She	-870
▁experience	-871
▁him	-872
ired	-873
iqu	-874
▁family	-875
▁ret	-876
roup	-877
▁Le	-878
▁those	-879
▁offer	-880
▁Ad	-881
ins	-882
▁aut	-883
▁adv	-884
ock	-885
ctions	-886
ature	-887
▁pub	-888
▁sub	-889
▁cor	-890
ata	-891
ene	-892
joy	-893
▁services	-894
ittle	-895
cept	-896
ars	-897
▁import	-898
▁process	-899
view	-900
▁plan	-901
▁9	-902
ety	-903
iving	-904
▁What	-905
▁still	-906
▁always	-907
ines	-908
▁interest	-909
ized	-910
▁var	-911
▁All	-912
▁lar	-913
▁pol	-914
▁hand	-915
ween	-916
▁pur	-917
▁both	-918
▁char	-919
▁build	-920
be	-921
stand	-922
▁Te	-923
▁At	-924
ants	-925
iel	-926
ology	-927
▁run	-928
▁200	-929
ten	-930
ness	-931
▁Pl	-932
▁health	-933
▁keep	-934
▁water	-935
▁study	-936
▁ext	-937
▁special	-938
ope	-939
▁including	-940
▁provide	-941
ton	-942
ital	-943
▁ide	-944
▁mus	-945
▁di	-946
▁between	-947
▁main	-948
20	-949
▁open	-950
ves	-951
▁rest	-952
▁follow	-953
▁hard	-954
▁same	-955
▁quality	-956
iversity	-957
▁Ex	-958
ters	-959
▁next	-960
▁dri	-961
▁opt	-962
▁With	-963
ished	-964
▁sign	-965
bers	-966
ik	-967
els	-968
ery	-969
ural	-970
▁friends	-971
▁during	-972
▁cent	-973
▁ty	-974
▁little	-975
▁three	-976
▁few	-977
▁week	-978
▁days	-979
▁real	-980
▁enjoy	-981
▁mov	-982
▁small	-983
▁since	-984
ah	-985
▁come	-986
▁val	-987
uc	-988
▁fil	-989
▁learn	-990
ross	-991
orth	-992
▁organ	-993
▁meet	-994
▁webs	-995
▁things	-996
▁ev	-997
ug	-998
▁tri	-999
▁got	-1000
meric	-1001
ware	-1002
reen	-1003
ern	-1004
▁area	-1005
▁try	-1006
thing	-1007
▁appro	-1008
port	-1009
ody	-1010
▁pass	-1011
▁rece	-1012
▁better	-1013
ms	-1014
▁Q	-1015
ute	-1016
less	-1017
▁say	-1018
▁pat	-1019
▁room	-1020
ined	-1021
▁phot	-1022
▁perform	-1023
▁ve	-1024
▁poss	-1025
ffect	-1026
▁result	-1027
▁able	-1028
▁pri	-1029
▁Ind	-1030
ours	-1031
ients	-1032
co	-1033
▁allow	-1034
▁sure	-1035
▁old	-1036
▁bra	-1037
▁stand	-1038
▁full	-1039
room	-1040
▁students	-1041
▁job	-1042
load	-1043
ently	-1044
▁profess	-1045
▁give	-1046
▁went	-1047
ists	-1048
▁online	-1049
ien	-1050
ield	-1051
uss	-1052
ior	-1053
ral	-1054
▁Americ	-1055
ling	-1056
▁cost	-1057
self	-1058
oney	-1059
▁looking	-1060
▁ref	-1061
ortun	-1062
▁gener	-1063
▁site	-1064
▁important	-1065
▁i	-1066
man	-1067
▁cap	-1068
▁Col	-1069
▁quest	-1070
dition	-1071
▁current	-1072
▁eng	-1073
gy	-1074
▁impro	-1075
▁working	-1076
▁number	-1077
▁products	-1078
▁partic	-1079
...	-1080
▁Is	-1081
work	-1082
▁big	-1083
▁report	-1084
▁must	-1085
▁contin	-1086
,000	-1087
▁proble	-1088
▁pay	-1089
▁food	-1090
▁light	-1091
ames	-1092
▁something	-1093
oot	-1094
▁without	-1095
loy	-1096
▁bel	-1097
▁conc	-1098
▁beaut	-1099
▁proper	-1100
arly	-1101
ately	-1102
▁conf	-1103
ccess	-1104
▁access	-1105
ering	-1106
▁data	-1107
▁:	-1108
▁opp	-1109
▁Sc	-1110
▁test	-1111
▁Do	-1112
▁group	-1113
▁pract	-1114
▁dist	-1115
▁Ph	-1116
▁second	-1117
ted	-1118
▁website	-1119
▁point	-1120
▁/	-1121
▁intern	-1122
ared	-1123
▁level	-1124
▁understand	-1125
▁Can	-1126
▁direct	-1127
outh	-1128
▁resp	-1129
con	-1130
▁Japanese	-1131
▁win	-1132
ploy	-1133
▁oper	-1134
▁iss	-1135
▁Br	-1136
▁indust	-1137
ok	-1138
▁Z	-1139
▁colle	-1140
▁air	-1141
▁put	-1142
▁bro	-1143
▁order	-1144
▁grow	-1145
orn	-1146
▁ann	-1147
▁state	-1148
ills	-1149
ically	-1150
pping	-1151
▁Con	-1152
▁buy	-1153
▁visit	-1154
▁game	-1155
▁house	-1156
▁fac	-1157
▁view	-1158
ffic	-1159
aj	-1160
▁spec	-1161
▁Man	-1162
!!	-1163
▁pop	-1164
▁equ	-1165
▁another	-1166
ium	-1167
▁local	-1168
▁project	-1169
ries	-1170
▁check	-1171
▁let	-1172
▁ca	-1173
iful	-1174
eng	-1175
▁Chr	-1176
▁rese	-1177
▁gl	-1178
ps	-1179
▁sit	-1180
▁power	-1181
▁easy	-1182
▁Res	-1183
▁addition	-1184
▁incre	-1185
▁children	-1186
▁ask	-1187
▁blo	-1188
ration	-1189
▁contact	-1190
ards	-1191
▁head	-1192
▁ob	-1193
▁est	-1194
▁friend	-1195
iron	-1196
▁never	-1197
▁within	-1198
ina	-1199
ique	-1200
over	-1201
▁After	-1202
▁name	-1203
ator	-1204
▁sl	-1205
▁needs	-1206
▁0	-1207
tain	-1208
▁event	-1209
ised	-1210
▁hot	-1211
▁sal	-1212
▁Bl	-1213
▁bre	-1214
▁12	-1215
▁US	-1216
▁stre	-1217
agement	-1218
▁Sp	-1219
ats	-1220
▁fact	-1221
▁invest	-1222
ision	-1223
rol	-1224
ote	-1225
▁less	-1226
▁money	-1227
▁live	-1228
▁inf	-1229
▁exc	-1230
▁present	-1231
rence	-1232
▁def	-1233
▁music	-1234
▁unt	-1235
gin	-1236
ieve	-1237
▁vide	-1238
ems	-1239
▁kind	-1240
▁expl	-1241
▁gr	-1242
▁night	-1243
▁Or	-1244
illion	-1245
▁applic	-1246
▁please	-1247
ruct	-1248
▁course	-1249
▁prom	-1250
sh	-1251
-1	-1252
50	-1253
▁making	-1254
▁public	-1255
,”	-1256
ER	-1257
▁talk	-1258
tend	-1259
▁Cent	-1260
ense	-1261
ified	-1262
yle	-1263
por	-1264
▁That	-1265
▁pain	-1266
inal	-1267
ivid	-1268
▁These	-1269
cing	-1270
▁cert	-1271
▁detail	-1272
▁toget	-1273
▁together	-1274
ential	-1275
▁complete	-1276
▁why	-1277
aster	-1278
utes	-1279
ode	-1280
▁word	-1281
▁hope	-1282
▁However	-1283
att	-1284
▁perfect	-1285
▁Jo	-1286
▁might	-1287
▁product	-1288
▁large	-1289
▁sing	-1290
aterial	-1291
▁page	-1292
▁community	-1293
bo	-1294
ird	-1295
▁success	-1296
▁Me	-1297
ogra	-1298
ai	-1299
ott	-1300
▁One	-1301
▁pos	-1302
▁until	-1303
▁ce	-1304
▁creat	-1305
▁feat	-1306
▁Co	-1307
▁Tr	-1308
▁fore	-1309
aper	-1310
part	-1311
▁activ	-1312
pped	-1313
ann	-1314
ding	-1315
▁beautiful	-1316
ission	-1317
ories	-1318
▁prote	-1319
iver	-1320
pecial	-1321
▁pict	-1322
let	-1323
ered	-1324
ases	-1325
▁chang	-1326
▁Please	-1327
ley	-1328
br	-1329
▁change	-1330
aring	-1331
▁dr	-1332
▁fav	-1333
ffe	-1334
▁18	-1335
ember	-1336
▁University	-1337
ury	-1338
to	-1339
▁wom	-1340
oring	-1341
▁May	-1342
viron	-1343
▁country	-1344
▁Pr	-1345
olid	-1346
▁opportun	-1347
▁Tod	-1348
▁become	-1349
ains	-1350
arent	-1351
ording	-1352
▁30	-1353
▁started	-1354
▁along	-1355
atter	-1356
▁No	-1357
▁solut	-1358
pend	-1359
orm	-1360
▁possible	-1361
▁four	-1362
▁below	-1363
."	-1364
▁often	-1365
▁based	-1366
▁el	-1367
▁conne	-1368
ney	-1369
▁price	-1370
▁members	-1371
▁sw	-1372
fic	-1373
▁Comm	-1374
▁const	-1375
▁treat	-1376
▁‘	-1377
▁ele	-1378
▁material	-1379
ocus	-1380
▁soft	-1381
ids	-1382
min	-1383
▁elect	-1384
▁create	-1385
aff	-1386
▁bas	-1387
▁sum	-1388
▁effect	-1389
▁employ	-1390
augh	-1391
▁times	-1392
▁turn	-1393
▁clo	-1394
▁away	-1395
uture	-1396
icle	-1397
ability	-1398
▁past	-1399
side	-1400
soci	-1401
▁dra	-1402
ived	-1403
▁clean	-1404
med	-1405
▁Today	-1406
▁short	-1407
▁makes	-1408
itc	-1409
▁Christ	-1410
▁expect	-1411
uck	-1412
▁bed	-1413
▁2018	-1414
▁include	-1415
▁city	-1416
cent	-1417
▁offers	-1418
irl	-1419
▁research	-1420
ron	-1421
▁install	-1422
oose	-1423
IN	-1424
ready	-1425
▁law	-1426
urs	-1427
▁hist	-1428
itions	-1429
▁development	-1430
▁hours	-1431
▁Car	-1432
▁educ	-1433
▁range	-1434
▁bene	-1435
ising	-1436
uro	-1437
▁Des	-1438
▁improve	-1439
▁ens	-1440
ands	-1441
veral	-1442
▁15	-1443
▁watch	-1444
of	-1445
▁called	-1446
indow	-1447
▁store	-1448
▁Tra	-1449
▁11	-1450
oice	-1451
angu	-1452
▁personal	-1453
▁Mar	-1454
arning	-1455
▁season	-1456
▁tem	-1457
ged	-1458
pos	-1459
ify	-1460
▁En	-1461
ider	-1462
▁customers	-1463
itive	-1464
▁speak	-1465
▁dev	-1466
osp	-1467
▁Am	-1468
▁jo	-1469
vironment	-1470
ency	-1471
ization	-1472
ination	-1473
ane	-1474
ump	-1475
ateg	-1476
▁already	-1477
▁es	-1478
▁industry	-1479
▁whe	-1480
▁having	-1481
▁dem	-1482
▁Now	-1483
▁individ	-1484
rie	-1485
ream	-1486
ger	-1487
oor	-1488
▁thought	-1489
▁comes	-1490
ister	-1491
▁focus	-1492
▁ste	-1493
fer	-1494
▁news	-1495
vern	-1496
ift	-1497
uper	-1498
▁future	-1499
ample	-1500
▁pack	-1501
mend	-1502
anies	-1503
ush	-1504
▁stay	-1505
▁leg	-1506
▁Ro	-1507
▁thing	-1508
▁beh	-1509
▁Intern	-1510
▁App	-1511
cu	-1512
▁quick	-1513
▁case	-1514
ured	-1515
▁la	-1516
▁across	-1517
▁mult	-1518
uf	-1519
orts	-1520
▁Fe	-1521
▁account	-1522
▁tre	-1523
▁pot	-1524
▁hum	-1525
ism	-1526
▁minutes	-1527
▁Cont	-1528
30	-1529
The	-1530
enn	-1531
unch	-1532
▁prep	-1533
▁side	-1534
rop	-1535
▁several	-1536
▁compet	-1537
▁Che	-1538
▁video	-1539
▁features	-1540
by	-1541
▁low	-1542
▁vers	-1543
▁net	-1544
10	-1545
▁tell	-1546
iety	-1547
▁require	-1548
▁review	-1549
▁Mon	-1550
▁means	-1551
▁tool	-1552
▁write	-1553
▁exam	-1554
▁cou	-1555
▁happy	-1556
ograph	-1557
▁travel	-1558
ners	-1559
▁others	-1560
▁left	-1561
book	-1562
▁individual	-1563
▁wond	-1564
▁share	-1565
ched	-1566
ention	-1567
▁took	-1568
▁mar	-1569
ajor	-1570
ape	-1571
▁line	-1572
▁came	-1573
▁purch	-1574
▁wa	-1575
ester	-1576
▁professional	-1577
cl	-1578
wards	-1579
▁govern	-1580
▁space	-1581
jects	-1582
▁move	-1583
▁term	-1584
vious	-1585
alf	-1586
▁Comp	-1587
▁getting	-1588
hor	-1589
▁bring	-1590
ctor	-1591
most	-1592
▁story	-1593
▁link	-1594
▁Ste	-1595
▁social	-1596
▁control	-1597
.,	-1598
▁hig	-1599
▁against	-1600
▁Gu	-1601
▁record	-1602
iven	-1603
conom	-1604
rodu	-1605
▁priv	-1606
▁walk	-1607
aces	-1608
▁bit	-1609
▁specific	-1610
▁X	-1611
cell	-1612
▁orig	-1613
▁langu	-1614
fort	-1615
anks	-1616
▁camp	-1617
ides	-1618
▁office	-1619
ufact	-1620
▁Inst	-1621
▁ever	-1622
app	-1623
▁young	-1624
▁companies	-1625
▁done	-1626
ford	-1627
▁fund	-1628
▁technology	-1629
▁comb	-1630
▁Fl	-1631
▁enough	-1632
▁flo	-1633
atural	-1634
ON	-1635
▁ago	-1636
ably	-1637
▁Sy	-1638
ots	-1639
▁questions	-1640
ilities	-1641
▁body	-1642
ficult	-1643
▁key	-1644
acher	-1645
▁occ	-1646
▁100	-1647
oon	-1648
err	-1649
▁recom	-1650
▁near	-1651
▁months	-1652
ret	-1653
▁American	-1654
▁mean	-1655
▁Serv	-1656
▁provides	-1657
▁Wor	-1658
▁non	-1659
▁cover	-1660
ee	-1661
▁difficult	-1662
▁strong	-1663
cle	-1664
▁email	-1665
▁living	-1666
aur	-1667
ones	-1668
▁typ	-1669
▁cut	-1670
ided	-1671
▁offic	-1672
▁mor	-1673
▁building	-1674
▁deal	-1675
▁unique	-1676
▁environment	-1677
bal	-1678
▁et	-1679
AN	-1680
ored	-1681
ky	-1682
▁Med	-1683
urity	-1684
▁upd	-1685
▁search	-1686
ec	-1687
RE	-1688
mber	-1689
▁major	-1690
▁training	-1691
ilt	-1692
▁pie	-1693
go	-1694
▁staff	-1695
ript	-1696
▁hold	-1697
▁Your	-1698
▁problem	-1699
▁writing	-1700
ances	-1701
the	-1702
▁sle	-1703
▁field	-1704
▁close	-1705
▁sound	-1706
▁benef	-1707
▁2019	-1708
▁mind	-1709
▁favor	-1710
▁web	-1711
▁redu	-1712
pecially	-1713
▁rele	-1714
ribut	-1715
come	-1716
AT	-1717
une	-1718
▁learning	-1719
▁Aust	-1720
ights	-1721
▁vol	-1722
▁million	-1723
▁recommend	-1724
▁works	-1725
lished	-1726
▁mil	-1727
urance	-1728
▁begin	-1729
▁everything	-1730
▁cra	-1731
▁experien	-1732
▁lim	-1733
▁cult	-1734
sw	-1735
ex	-1736
▁cook	-1737
iter	-1738
▁early	-1739
▁comput	-1740
▁designed	-1741
▁doing	-1742
osed	-1743
ches	-1744
urther	-1745
▁break	-1746
▁return	-1747
▁ener	-1748
1.	-1749
ledge	-1750
▁anal	-1751
▁—	-1752
atic	-1753
▁mom	-1754
▁soon	-1755
hod	-1756
▁yet	-1757
▁heart	-1758
▁sell	-1759
obile	-1760
▁someone	-1761
▁charact	-1762
▁once	-1763
ony	-1764
▁far	-1765
▁discuss	-1766
▁corre	-1767
▁Euro	-1768
,"	-1769
▁skills	-1770
ference	-1771
▁Rep	-1772
▁Im	-1773
▁management	-1774
▁known	-1775
idd	-1776
▁tot	-1777
▁size	-1778
arl	-1779
▁print	-1780
▁various	-1781
▁sent	-1782
▁invol	-1783
▁men	-1784
omes	-1785
▁located	-1786
▁results	-1787
▁popular	-1788
▁mess	-1789
▁School	-1790
▁step	-1791
▁City	-1792
ball	-1793
ource	-1794
resent	-1795
uff	-1796
ST	-1797
▁value	-1798
ening	-1799
sel	-1800
▁simple	-1801
▁areas	-1802
▁sho	-1803
hn	-1804
▁chall	-1805
resh	-1806
▁tour	-1807
ww	-1808
elt	-1809
ume	-1810
ancial	-1811
itchen	-1812
▁download	-1813
▁series	-1814
▁summer	-1815
▁style	-1816
▁bar	-1817
▁mot	-1818
▁2017	-1819
2.	-1820
▁reason	-1821
▁won	-1822
irm	-1823
nov	-1824
ensive	-1825
abor	-1826
▁mach	-1827
▁Min	-1828
▁performance	-1829
▁South	-1830
astic	-1831
▁front	-1832
▁Count	-1833
▁click	-1834
cer	-1835
▁wide	-1836
▁customer	-1837
▁phone	-1838
ources	-1839
▁Dr	-1840
▁ey	-1841
oll	-1842
ites	-1843
▁host	-1844
illed	-1845
▁port	-1846
▁property	-1847
nam	-1848
▁address	-1849
▁clients	-1850
▁particip	-1851
nder	-1852
▁following	-1853
ips	-1854
▁bad	-1855
▁enc	-1856
place	-1857
cks	-1858
▁manufact	-1859
hest	-1860
yl	-1861
ental	-1862
▁parent	-1863
son	-1864
5.	-1865
AR	-1866
though	-1867
ring	-1868
▁morning	-1869
▁14	-1870
▁flow	-1871
▁24	-1872
ither	-1873
▁nice	-1874
▁choose	-1875
▁song	-1876
▁lat	-1877
rap	-1878
▁assist	-1879
▁says	-1880
inc	-1881
▁color	-1882
ges	-1883
▁By	-1884
play	-1885
▁women	-1886
▁everyone	-1887
aim	-1888
▁respons	-1889
▁Apr	-1890
▁ensure	-1891
▁Park	-1892
▁teacher	-1893
lex	-1894
▁includes	-1895
icy	-1896
▁above	-1897
cted	-1898
gr	-1899
ians	-1900
▁girl	-1901
▁Bo	-1902
▁manag	-1903
▁16	-1904
atur	-1905
ung	-1906
ruction	-1907
▁taking	-1908
▁told	-1909
▁shop	-1910
▁z	-1911
▁Pe	-1912
▁least	-1913
▁engine	-1914
▁Pre	-1915
▁glo	-1916
▁card	-1917
▁select	-1918
▁Dis	-1919
▁Inc	-1920
▁comfort	-1921
▁government	-1922
▁1.	-1923
19	-1924
▁mag	-1925
▁Some	-1926
▁Gra	-1927
▁Here	-1928
rew	-1929
ipment	-1930
▁oil	-1931
▁energy	-1932
af	-1933
▁wonder	-1934
roll	-1935
▁party	-1936
▁North	-1937
▁face	-1938
▁type	-1939
upp	-1940
asing	-1941
▁especially	-1942
irt	-1943
▁five	-1944
▁forward	-1945
▁example	-1946
3.	-1947
ibr	-1948
▁natural	-1949
▁park	-1950
▁press	-1951
▁events	-1952
▁text	-1953
▁econom	-1954
▁single	-1955
▁student	-1956
▁details	-1957
fully	-1958
▁wanted	-1959
▁table	-1960
ival	-1961
▁Europe	-1962
▁ident	-1963
▁tas	-1964
▁Ke	-1965
▁tax	-1966
tt	-1967
▁Just	-1968
lement	-1969
ables	-1970
ille	-1971
aken	-1972
ests	-1973
iod	-1974
▁media	-1975
▁currently	-1976
▁Sm	-1977
▁due	-1978
▁dig	-1979
▁United	-1980
ibility	-1981
▁God	-1982
▁certain	-1983
▁Tw	-1984
▁199	-1985
▁believe	-1986
▁miss	-1987
ogn	-1988
rict	-1989
▁seen	-1990
▁Not	-1991
▁wall	-1992
▁From	-1993
▁pick	-1994
▁brand	-1995
gest	-1996
▁communic	-1997
▁etc	-1998
▁almost	-1999
ulation	-2000
ux	-2001
▁#	-2002
▁games	-2003
▁ach	-2004
▁reading	-2005
▁jour	-2006
▁issues	-2007
▁announ	-2008
▁latest	-2009
▁relations	-2010
▁aud	-2011
azing	-2012
▁appear	-2013
▁attend	-2014
esterday	-2015
▁added	-2016
▁knowledge	-2017
▁method	-2018
▁words	-2019
▁Qu	-2020
▁books	-2021
▁High	-2022
▁veh	-2023
▁receive	-2024
eral	-2025
▁sol	-2026
▁content	-2027
▁situ	-2028
▁ideas	-2029
▁Per	-2030
▁ris	-2031
▁fast	-2032
▁50	-2033
▁language	-2034
▁John	-2035
vert	-2036
▁white	-2037
▁Bu	-2038
▁25	-2039
▁Cal	-2040
▁later	-2041
▁feature	-2042
▁recently	-2043
▁age	-2044
▁black	-2045
▁software	-2046
▁TV	-2047
▁whole	-2048
▁among	-2049
▁required	-2050
▁particular	-2051
▁National	-2052
▁ess	-2053
mb	-2054
▁practice	-2055
▁April	-2056
▁pan	-2057
▁held	-2058
ead	-2059
▁given	-2060
crib	-2061
ply	-2062
▁insp	-2063
▁ready	-2064
aps	-2065
ili	-2066
ze	-2067
▁eff	-2068
itted	-2069
time	-2070
▁restaur	-2071
ought	-2072
ler	-2073
▁World	-2074
▁amount	-2075
ators	-2076
▁systems	-2077
▁history	-2078
▁percent	-2079
▁favorite	-2080
-2	-2081
▁idea	-2082
▁effective	-2083
aching	-2084
urch	-2085
▁Ab	-2086
▁half	-2087
▁foot	-2088
▁tou	-2089
umb	-2090
▁throughout	-2091
anced	-2092
▁options	-2093
▁created	-2094
▁Stud	-2095
▁common	-2096
pro	-2097
▁cele	-2098
▁opportunity	-2099
▁answ	-2100
▁2.	-2101
▁Austral	-2102
▁Jan	-2103
▁problems	-2104
OR	-2105
▁While	-2106
▁ant	-2107
▁docu	-2108
gs	-2109
gle	-2110
▁whether	-2111
▁provided	-2112
▁Acc	-2113
imate	-2114
ried	-2115
▁fall	-2116
▁par	-2117
▁fire	-2118
▁Fin	-2119
▁box	-2120
▁fit	-2121
▁spend	-2122
▁needed	-2123
IC	-2124
▁anything	-2125
▁bath	-2126
▁education	-2127
▁2016	-2128
▁sat	-2129
▁further	-2130
▁movie	-2131
▁actually	-2132
aid	-2133
▁Every	-2134
▁safe	-2135
ED	-2136
▁Of	-2137
▁send	-2138
▁Reg	-2139
arr	-2140
▁Part	-2141
gra	-2142
idence	-2143
▁tradition	-2144
▁coll	-2145
iam	-2146
aily	-2147
li	-2148
cript	-2149
▁stop	-2150
▁autom	-2151
▁coming	-2152
▁member	-2153
▁x	-2154
▁cool	-2155
▁17	-2156
▁private	-2157
▁State	-2158
▁film	-2159
itten	-2160
4.	-2161
AL	-2162
▁cred	-2163
▁fre	-2164
▁sales	-2165
▁extra	-2166
▁super	-2167
▁excell	-2168
▁Day	-2169
ises	-2170
back	-2171
▁countries	-2172
▁po	-2173
▁ful	-2174
ained	-2175
mercial	-2176
▁Bro	-2177
▁financial	-2178
▁paper	-2179
▁Bra	-2180
ES	-2181
not	-2182
▁road	-2183
ification	-2184
▁wood	-2185
ened	-2186
▁image	-2187
▁Sec	-2188
▁drink	-2189
▁red	-2190
▁gradu	-2191
▁[	-2192
▁period	-2193
▁network	-2194
▁entry	-2195
indows	-2196
lection	-2197
▁Then	-2198
▁Don	-2199
orrow	-2200
▁decided	-2201
▁Are	-2202
▁accom	-2203
▁More	-2204
▁Any	-2205
▁sun	-2206
▁York	-2207
▁phys	-2208
ada	-2209
▁Us	-2210
▁myself	-2211
▁save	-2212
▁swe	-2213
▁cond	-2214
par	-2215
▁meas	-2216
ees	-2217
▁author	-2218
▁activities	-2219
▁application	-2220
▁introdu	-2221
itch	-2222
▁quite	-2223
▁usually	-2224
ires	-2225
▁eat	-2226
▁holid	-2227
ief	-2228
▁received	-2229
▁meeting	-2230
▁dam	-2231
irth	-2232
▁doesn	-2233
ino	-2234
cause	-2235
▁consider	-2236
▁takes	-2237
▁*	-2238
airs	-2239
arth	-2240
▁function	-2241
▁variety	-2242
▁model	-2243
▁represent	-2244
EN	-2245
AS	-2246
▁computer	-2247
▁users	-2248
ilar	-2249
▁dou	-2250
▁projects	-2251
▁version	-2252
▁UK	-2253
ming	-2254
▁af	-2255
▁effic	-2256
▁equipment	-2257
opy	-2258
▁relationship	-2259
▁international	-2260
ued	-2261
▁hair	-2262
▁town	-2263
ana	-2264
▁Center	-2265
▁continue	-2266
▁sugg	-2267
▁Sw	-2268
▁providing	-2269
▁Home	-2270
acy	-2271
▁sale	-2272
▁file	-2273
▁easily	-2274
▁solutions	-2275
▁tru	-2276
▁13	-2277
▁track	-2278
▁...	-2279
▁skin	-2280
▁entire	-2281
▁sleep	-2282
uk	-2283
▁self	-2284
▁anim	-2285
▁necess	-2286
icro	-2287
1,	-2288
▁kitchen	-2289
▁weeks	-2290
▁question	-2291
anc	-2292
▁Will	-2293
▁asked	-2294
▁human	-2295
AC	-2296
idge	-2297
▁date	-2298
oke	-2299
▁Dep	-2300
▁County	-2301
▁Thanks	-2302
▁init	-2303
▁correct	-2304
▁running	-2305
▁official	-2306
▁taken	-2307
▁weeke	-2308
▁arri	-2309
▁collection	-2310
▁via	-2311
▁Bar	-2312
selves	-2313
▁wel	-2314
itical	-2315
▁materials	-2316
▁security	-2317
▁lives	-2318
amer	-2319
▁Act	-2320
▁according	-2321
hib	-2322
where	-2323
▁either	-2324
▁potential	-2325
▁March	-2326
mm	-2327
ny	-2328
▁outside	-2329
▁drive	-2330
istic	-2331
▁land	-2332
IT	-2333
▁Design	-2334
▁original	-2335
nes	-2336
▁treatment	-2337
▁interesting	-2338
▁Pres	-2339
val	-2340
oud	-2341
▁Aut	-2342
▁cal	-2343
verage	-2344
▁built	-2345
oura	-2346
▁His	-2347
mas	-2348
face	-2349
edding	-2350
ground	-2351
▁First	-2352
▁Af	-2353
▁clear	-2354
▁base	-2355
▁worked	-2356
▁looks	-2357
▁regular	-2358
▁Off	-2359
aining	-2360
▁ways	-2361
▁amazing	-2362
ham	-2363
▁Ge	-2364
atform	-2365
▁regard	-2366
used	-2367
eth	-2368
▁six	-2369
wh	-2370
▁Pol	-2371
▁modern	-2372
▁Because	-2373
▁previous	-2374
▁interested	-2375
▁picture	-2376
▁increase	-2377
▁Air	-2378
ging	-2379
▁Val	-2380
▁exist	-2381
ster	-2382
▁leave	-2383
▁Get	-2384
▁shows	-2385
▁third	-2386
▁production	-2387
ura	-2388
▁recogn	-2389
▁impact	-2390
▁Art	-2391
itor	-2392
▁Ed	-2393
▁prob	-2394
▁final	-2395
uge	-2396
▁insurance	-2397
▁parents	-2398
▁deg	-2399
▁saw	-2400
▁total	-2401
▁hon	-2402
▁mix	-2403
▁mat	-2404
60	-2405
iday	-2406
▁tick	-2407
▁bott	-2408
▁didn	-2409
▁Also	-2410
▁Sund	-2411
▁dream	-2412
▁Gr	-2413
▁choice	-2414
new	-2415
▁yourself	-2416
▁items	-2417
▁allows	-2418
gress	-2419
▁Oct	-2420
▁Thank	-2421
▁Mr	-2422
▁posted	-2423
icles	-2424
▁leading	-2425
▁West	-2426
▁kids	-2427
▁Ju	-2428
▁ple	-2429
▁Cor	-2430
▁saf	-2431
▁expert	-2432
▁hy	-2433
▁fresh	-2434
olution	-2435
cil	-2436
▁China	-2437
▁trip	-2438
▁programs	-2439
▁pret	-2440
▁draw	-2441
nal	-2442
na	-2443
imum	-2444
▁standard	-2445
oogle	-2446
▁location	-2447
▁code	-2448
▁coun	-2449
▁estab	-2450
▁trying	-2451
▁stra	-2452
??	-2453
ew	-2454
▁ut	-2455
▁mobile	-2456
itting	-2457
▁Ag	-2458
iple	-2459
▁pictures	-2460
▁Her	-2461
aby	-2462
ison	-2463
iet	-2464
▁quickly	-2465
my	-2466
adem	-2467
18	-2468
ecut	-2469
▁position	-2470
▁marketing	-2471
▁Rec	-2472
▁consum	-2473
▁included	-2474
▁signific	-2475
▁abs	-2476
▁Since	-2477
inese	-2478
▁recent	-2479
▁express	-2480
wood	-2481
▁role	-2482
▁chance	-2483
▁accept	-2484
▁seem	-2485
▁cir	-2486
▁simply	-2487
▁photos	-2488
▁goal	-2489
arden	-2490
▁blog	-2491
mit	-2492
▁Mc	-2493
▁cold	-2494
▁Int	-2495
▁inside	-2496
reme	-2497
▁related	-2498
▁apply	-2499
lus	-2500
▁Cr	-2501
▁dom	-2502
▁finish	-2503
▁sche	-2504
▁character	-2505
▁playing	-2506
▁sometimes	-2507
medi	-2508
ondon	-2509
ellow	-2510
IS	-2511
▁deb	-2512
▁anyone	-2513
▁celebr	-2514
▁vac	-2515
▁pretty	-2516
▁plans	-2517
▁maintain	-2518
▁Friday	-2519
▁associ	-2520
▁club	-2521
▁additional	-2522
iring	-2523
▁true	-2524
▁tit	-2525
aving	-2526
istration	-2527
▁screen	-2528
bor	-2529
▁innov	-2530
urer	-2531
▁plant	-2532
▁growth	-2533
▁match	-2534
▁surpr	-2535
▁purchase	-2536
urg	-2537
12	-2538
▁user	-2539
▁rad	-2540
▁felt	-2541
cast	-2542
▁tom	-2543
year	-2544
▁changes	-2545
izing	-2546
▁written	-2547
uary	-2548
▁late	-2549
▁arr	-2550
reet	-2551
top	-2552
▁cell	-2553
▁daily	-2554
▁rate	-2555
▁America	-2556
▁condition	-2557
▁medical	-2558
▁parts	-2559
▁display	-2560
▁mother	-2561
▁highly	-2562
▁Health	-2563
▁Aug	-2564
▁claim	-2565
▁House	-2566
ha	-2567
▁bal	-2568
▁Let	-2569
▁seems	-2570
hel	-2571
▁excellent	-2572
▁Bus	-2573
▁commercial	-2574
▁40	-2575
▁issue	-2576
▁platform	-2577
▁Kore	-2578
based	-2579
▁wish	-2580
▁stri	-2581
▁Satur	-2582
▁TH	-2583
▁sil	-2584
erc	-2585
▁weekend	-2586
▁struct	-2587
▁London	-2588
▁International	-2589
aging	-2590
▁touch	-2591
▁however	-2592
▁points	-2593
ules	-2594
edic	-2595
cher	-2596
▁El	-2597
head	-2598
▁Associ	-2599
▁fail	-2600
▁solution	-2601
orage	-2602
▁images	-2603
15	-2604
ffee	-2605
▁matter	-2606
put	-2607
▁concern	-2608
▁ill	-2609
▁Sept	-2610
▁warm	-2611
▁Great	-2612
▁suggest	-2613
▁weather	-2614
9.	-2615
ublic	-2616
oid	-2617
40	-2618
▁lay	-2619
▁prices	-2620
▁safety	-2621
▁mark	-2622
▁June	-2623
▁ground	-2624
partment	-2625
▁floor	-2626
▁States	-2627
▁arch	-2628
▁stat	-2629
▁Feb	-2630
▁center	-2631
▁similar	-2632
pper	-2633
inner	-2634
7.	-2635
ole	-2636
action	-2637
▁defin	-2638
▁India	-2639
▁Chinese	-2640
▁foreign	-2641
▁mount	-2642
arget	-2643
▁national	-2644
ences	-2645
▁determ	-2646
▁Sunday	-2647
▁collect	-2648
▁tools	-2649
▁boy	-2650
▁feed	-2651
▁digital	-2652
▁squ	-2653
▁clos	-2654
▁infl	-2655
▁qual	-2656
▁enter	-2657
iddle	-2658
▁board	-2659
▁helps	-2660
ox	-2661
▁global	-2662
▁exact	-2663
▁aw	-2664
▁costs	-2665
▁significant	-2666
▁Free	-2667
▁ability	-2668
aced	-2669
erve	-2670
▁rent	-2671
▁Ac	-2672
▁Many	-2673
ached	-2674
▁Em	-2675
▁Well	-2676
▁encoura	-2677
▁green	-2678
▁action	-2679
eter	-2680
isf	-2681
6.	-2682
aches	-2683
▁request	-2684
▁career	-2685
▁planning	-2686
OT	-2687
▁inj	-2688
▁couple	-2689
earch	-2690
ara	-2691
▁Saturday	-2692
▁round	-2693
▁behind	-2694
oph	-2695
▁article	-2696
▁traditional	-2697
▁general	-2698
▁suit	-2699
▁gold	-2700
▁types	-2701
atory	-2702
▁option	-2703
hold	-2704
▁furn	-2705
▁Most	-2706
▁else	-2707
▁birth	-2708
iture	-2709
▁leaders	-2710
▁higher	-2711
avy	-2712
▁deliver	-2713
▁Why	-2714
▁stock	-2715
▁machine	-2716
sc	-2717
▁risk	-2718
iable	-2719
▁profession	-2720
▁Direct	-2721
▁tal	-2722
ession	-2723
▁respect	-2724
▁release	-2725
▁bud	-2726
▁sens	-2727
▁university	-2728
▁worth	-2729
ek	-2730
hern	-2731
▁decor	-2732
board	-2733
▁consult	-2734
inary	-2735
We	-2736
▁heard	-2737
▁patients	-2738
▁deep	-2739
▁probably	-2740
OU	-2741
ober	-2742
▁challeng	-2743
izes	-2744
pose	-2745
▁gives	-2746
▁Christmas	-2747
▁partners	-2748
▁bag	-2749
-3	-2750
▁Har	-2751
▁3.	-2752
▁Up	-2753
▁likely	-2754
▁lif	-2755
▁Red	-2756
ville	-2757
▁Book	-2758
▁door	-2759
▁Google	-2760
▁train	-2761
▁longer	-2762
ension	-2763
▁lic	-2764
▁prevent	-2765
org	-2766
▁Sim	-2767
2,	-2768
▁studying	-2769
hood	-2770
▁emb	-2771
▁San	-2772
mon	-2773
▁active	-2774
▁piece	-2775
ospital	-2776
▁ball	-2777
▁Face	-2778
▁agree	-2779
▁Mus	-2780
▁Black	-2781
light	-2782
▁convers	-2783
▁fram	-2784
▁admin	-2785
▁necessary	-2786
pri	-2787
▁Group	-2788
▁nothing	-2789
ilies	-2790
▁Was	-2791
▁thinking	-2792
itut	-2793
▁wonderful	-2794
▁photo	-2795
▁answer	-2796
▁award	-2797
▁cand	-2798
▁contract	-2799
▁hour	-2800
▁fish	-2801
idents	-2802
ceed	-2803
▁benefits	-2804
▁yesterday	-2805
▁Par	-2806
▁glass	-2807
▁requirements	-2808
aign	-2809
80	-2810
reg	-2811
ashion	-2812
asons	-2813
▁lost	-2814
▁released	-2815
▁Germ	-2816
▁Monday	-2817
▁Click	-2818
AM	-2819
▁finished	-2820
▁prem	-2821
▁fully	-2822
▁hands	-2823
▁Sal	-2824
▁ones	-2825
ivery	-2826
....	-2827
▁dest	-2828
▁prior	-2829
▁inde	-2830
▁lower	-2831
3,	-2832
▁Out	-2833
▁speed	-2834
▁rather	-2835
▁fix	-2836
▁applications	-2837
▁Coun	-2838
iding	-2839
▁moment	-2840
▁sold	-2841
▁opportunities	-2842
▁dress	-2843
itation	-2844
ples	-2845
▁January	-2846
▁Gl	-2847
▁Each	-2848
▁achieve	-2849
ysis	-2850
▁resources	-2851
▁protect	-2852
estival	-2853
▁hotel	-2854
▁expected	-2855
▁fine	-2856
▁diary	-2857
▁Techn	-2858
▁bought	-2859
▁fab	-2860
▁July	-2861
▁Ins	-2862
▁remov	-2863
▁developed	-2864
▁remember	-2865
▁dry	-2866
▁Net	-2867
▁Afric	-2868
25	-2869
▁tried	-2870
▁trust	-2871
▁directly	-2872
arant	-2873
▁Commun	-2874
▁aim	-2875
▁norm	-2876
▁approach	-2877
▁ri	-2878
artment	-2879
▁join	-2880
▁became	-2881
▁October	-2882
ama	-2883
▁fig	-2884
▁Colle	-2885
vey	-2886
▁client	-2887
▁commit	-2888
▁;	-2889
amed	-2890
▁neg	-2891
▁average	-2892
▁players	-2893
▁message	-2894
eal	-2895
▁hear	-2896
▁September	-2897
▁La	-2898
sy	-2899
▁holiday	-2900
▁famous	-2901
▁sn	-2902
▁separ	-2903
▁>	-2904
▁rain	-2905
▁internet	-2906
▁credit	-2907
▁involved	-2908
▁vehicle	-2909
//	-2910
ipe	-2911
band	-2912
▁President	-2913
▁gift	-2914
▁Although	-2915
▁played	-2916
▁Even	-2917
▁Dav	-2918
just	-2919
▁bedroom	-2920
iction	-2921
▁cause	-2922
uel	-2923
▁places	-2924
atives	-2925
▁former	-2926
▁satisf	-2927
▁roll	-2928
8.	-2929
▁huge	-2930
lim	-2931
▁conditions	-2932
▁firm	-2933
ivity	-2934
▁hit	-2935
▁wedding	-2936
▁offering	-2937
▁Ser	-2938
▁except	-2939
▁cat	-2940
▁Brit	-2941
▁Australia	-2942
ude	-2943
▁iP	-2944
▁pers	-2945
▁weight	-2946
▁lab	-2947
press	-2948
▁target	-2949
▁August	-2950
▁mass	-2951
▁immedi	-2952
▁impress	-2953
▁Pat	-2954
▁wat	-2955
aves	-2956
▁construction	-2957
ooth	-2958
▁serious	-2959
illing	-2960
uit	-2961
▁reach	-2962
▁heat	-2963
ams	-2964
▁connect	-2965
▁multiple	-2966
▁Read	-2967
▁prim	-2968
▁cy	-2969
door	-2970
cription	-2971
▁Last	-2972
://	-2973
▁highest	-2974
16	-2975
▁categ	-2976
▁successful	-2977
rench	-2978
▁Add	-2979
▁Best	-2980
rown	-2981
▁Cons	-2982
▁bank	-2983
▁college	-2984
empt	-2985
amb	-2986
".	-2987
OM	-2988
▁mid	-2989
ibrary	-2990
▁businesses	-2991
ET	-2992
▁shopping	-2993
▁gave	-2994
▁emer	-2995
.”	-2996
▁storage	-2997
arter	-2998
▁Whe	-2999
▁sites	-3000
▁pool	-3001
▁starting	-3002
ography	-3003
▁dedic	-3004
▁experienced	-3005
erous	-3006
iles	-3007
icious	-3008
▁Calif	-3009
▁Business	-3010
▁appl	-3011
reci	-3012
▁loss	-3013
▁Service	-3014
OS	-3015
olf	-3016
▁instead	-3017
▁document	-3018
▁levels	-3019
▁|	-3020
▁implement	-3021
▁giving	-3022
urb	-3023
itter	-3024
ague	-3025
▁camer	-3026
▁£	-3027
▁Mich	-3028
ades	-3029
▁score	-3030
▁Cle	-3031
ING	-3032
cember	-3033
▁Good	-3034
▁families	-3035
iol	-3036
▁hous	-3037
▁organization	-3038
den	-3039
ube	-3040
▁culture	-3041
▁promot	-3042
▁relax	-3043
ovember	-3044
▁section	-3045
ipping	-3046
ties	-3047
▁Down	-3048
▁ep	-3049
▁attention	-3050
▁streng	-3051
▁coffee	-3052
▁repair	-3053
▁Prof	-3054
▁Department	-3055
EL	-3056
usher	-3057
▁creating	-3058
▁Rem	-3059
▁homes	-3060
▁condu	-3061
▁wait	-3062
▁employees	-3063
▁decision	-3064
ocol	-3065
irit	-3066
iced	-3067
zy	-3068
umn	-3069
iff	-3070
wide	-3071
▁Facebook	-3072
▁2015	-3073
▁lots	-3074
▁restaurant	-3075
▁depend	-3076
▁dise	-3077
▁source	-3078
istry	-3079
▁goals	-3080
▁gar	-3081
igation	-3082
agn	-3083
▁sett	-3084
▁interview	-3085
▁Met	-3086
▁policy	-3087
▁gen	-3088
enty	-3089
▁smart	-3090
▁device	-3091
▁schools	-3092
orge	-3093
▁suppl	-3094
▁supply	-3095
aly	-3096
▁Gener	-3097
▁temper	-3098
▁complex	-3099
▁Ang	-3100
▁Del	-3101
▁comfortable	-3102
ruary	-3103
▁strateg	-3104
▁campaign	-3105
EC	-3106
▁rout	-3107
▁System	-3108
▁November	-3109
▁enh	-3110
▁began	-3111
▁subject	-3112
▁December	-3113
▁Trans	-3114
aughter	-3115
▁Over	-3116
▁death	-3117
ask	-3118
▁neigh	-3119
ned	-3120
▁goes	-3121
bum	-3122
▁max	-3123
▁isn	-3124
▁growing	-3125
▁situation	-3126
▁Post	-3127
▁son	-3128
enge	-3129
11	-3130
▁cross	-3131
ule	-3132
itute	-3133
▁note	-3134
▁Year	-3135
▁instru	-3136
-0	-3137
▁Mod	-3138
key	-3139
mission	-3140
▁announced	-3141
▁appoint	-3142
4,	-3143
▁lik	-3144
▁region	-3145
▁positive	-3146
oming	-3147
ault	-3148
iling	-3149
▁wear	-3150
aries	-3151
▁--	-3152
▁Canada	-3153
▁completely	-3154
▁essential	-3155
dule	-3156
▁band	-3157
imately	-3158
str	-3159
riend	-3160
▁Russ	-3161
▁Ant	-3162
▁upon	-3163
▁Internet	-3164
▁Wed	-3165
ornia	-3166
▁healthy	-3167
▁+	-3168
▁describ	-3169
aker	-3170
▁Have	-3171
▁surround	-3172
ipped	-3173
▁White	-3174
▁groups	-3175
▁East	-3176
▁baby	-3177
▁Find	-3178
abin	-3179
raft	-3180
useum	-3181
▁advice	-3182
bit	-3183
▁legal	-3184
▁cannot	-3185
▁guide	-3186
▁Op	-3187
ma	-3188
▁College	-3189
aged	-3190
mark	-3191
▁blue	-3192
▁extreme	-3193
▁February	-3194
▁published	-3195
itect	-3196
enior	-3197
▁Bel	-3198
rial	-3199
▁afford	-3200
▁earn	-3201
▁Look	-3202
change	-3203
▁offe	-3204
▁Check	-3205
▁budget	-3206
▁feeling	-3207
70	-3208
ffects	-3209
like	-3210
AP	-3211
che	-3212
rought	-3213
▁Inter	-3214
▁snow	-3215
elling	-3216
▁appreci	-3217
▁wrong	-3218
aught	-3219
house	-3220
pre	-3221
▁serve	-3222
▁Services	-3223
▁Once	-3224
▁adult	-3225
▁Go	-3226
ato	-3227
wor	-3228
▁dog	-3229
▁conven	-3230
▁concept	-3231
▁Spr	-3232
▁guarant	-3233
▁carry	-3234
▁cases	-3235
pm	-3236
▁Gold	-3237
▁organiz	-3238
IL	-3239
rup	-3240
▁IN	-3241
▁California	-3242
▁spent	-3243
▁advant	-3244
▁delivery	-3245
▁wife	-3246
▁tele	-3247
▁themselves	-3248
itely	-3249
▁electric	-3250
cies	-3251
▁Port	-3252
▁bi	-3253
▁sports	-3254
▁busy	-3255
porate	-3256
▁PC	-3257
▁aware	-3258
▁sense	-3259
▁block	-3260
ager	-3261
▁60	-3262
”.	-3263
ares	-3264
▁tomorrow	-3265
▁sty	-3266
▁broad	-3267
▁medic	-3268
▁replace	-3269
▁affect	-3270
▁integr	-3271
▁Hot	-3272
▁farm	-3273
oul	-3274
▁indic	-3275
▁ge	-3276
▁largest	-3277
▁dinner	-3278
▁hop	-3279
▁imm	-3280
iant	-3281
▁1,	-3282
unte	-3283
▁ten	-3284
▁According	-3285
verse	-3286
▁dark	-3287
▁cash	-3288
▁seek	-3289
gar	-3290
ded	-3291
aul	-3292
▁Windows	-3293
rote	-3294
▁hor	-3295
▁limited	-3296
▁reported	-3297
▁See	-3298
▁effort	-3299
▁transport	-3300
▁helping	-3301
lin	-3302
▁nature	-3303
▁progress	-3304
▁copy	-3305
▁King	-3306
▁comment	-3307
▁investment	-3308
mod	-3309
anch	-3310
▁exhib	-3311
▁pages	-3312
▁bathroom	-3313
▁Pri	-3314
▁exerc	-3315
▁stress	-3316
▁slow	-3317
idered	-3318
▁winter	-3319
ida	-3320
▁Call	-3321
▁consist	-3322
▁individuals	-3323
EO	-3324
TM	-3325
▁eye	-3326
ological	-3327
▁Produ	-3328
▁selection	-3329
▁Found	-3330
Th	-3331
urt	-3332
ica	-3333
▁efficient	-3334
▁uses	-3335
ses	-3336
▁watching	-3337
▁Thurs	-3338
▁prec	-3339
▁terms	-3340
St	-3341
onse	-3342
▁obs	-3343
▁estate	-3344
▁collabor	-3345
▁Dist	-3346
▁div	-3347
ils	-3348
oms	-3349
▁Association	-3350
▁itself	-3351
▁Cour	-3352
▁Supp	-3353
17	-3354
off	-3355
▁led	-3356
▁difference	-3357
ett	-3358
▁ideal	-3359
rast	-3360
▁dru	-3361
roud	-3362
▁Law	-3363
▁understanding	-3364
▁completed	-3365
▁198	-3366
▁album	-3367
▁attack	-3368
coming	-3369
▁2010	-3370
▁spot	-3371
▁court	-3372
▁ble	-3373
▁pattern	-3374
▁htt	-3375
▁annual	-3376
▁double	-3377
▁towards	-3378
▁activity	-3379
▁load	-3380
▁path	-3381
ancing	-3382
▁Street	-3383
▁thank	-3384
▁4.	-3385
▁stories	-3386
▁Market	-3387
▁Green	-3388
▁thanks	-3389
▁changed	-3390
▁execut	-3391
▁purpose	-3392
roid	-3393
zz	-3394
▁IT	-3395
▁sweet	-3396
▁Indian	-3397
cel	-3398
▁woman	-3399
ively	-3400
▁father	-3401
▁analysis	-3402
▁prefer	-3403
▁capt	-3404
unt	-3405
▁degree	-3406
▁meaning	-3407
right	-3408
▁Love	-3409
▁imag	-3410
▁Wednes	-3411
▁classes	-3412
▁Oh	-3413
--	-3414
▁French	-3415
chan	-3416
body	-3417
ength	-3418
▁propos	-3419
ira	-3420
▁rev	-3421
▁star	-3422
rows	-3423
▁influ	-3424
▁ult	-3425
:00	-3426
▁useful	-3427
▁Play	-3428
rences	-3429
▁histor	-3430
▁moving	-3431
yond	-3432
OL	-3433
▁repl	-3434
▁furniture	-3435
porary	-3436
▁professionals	-3437
▁21	-3438
end	-3439
▁hus	-3440
▁spring	-3441
▁Work	-3442
hens	-3443
▁paint	-3444
gu	-3445
▁avoid	-3446
▁reduce	-3447
▁Thursday	-3448
▁finally	-3449
▁Dec	-3450
▁files	-3451
▁lunch	-3452
▁experts	-3453
▁fashion	-3454
▁contribut	-3455
lock	-3456
▁Spe	-3457
tenance	-3458
▁offered	-3459
▁loved	-3460
▁altern	-3461
▁gets	-3462
tee	-3463
▁Vis	-3464
▁European	-3465
▁feet	-3466
▁station	-3467
erved	-3468
▁War	-3469
▁Program	-3470
des	-3471
▁analy	-3472
▁stage	-3473
attle	-3474
ertain	-3475
▁Club	-3476
▁regarding	-3477
▁Tues	-3478
▁owners	-3479
▁exactly	-3480
▁garden	-3481
▁fan	-3482
▁circ	-3483
ulations	-3484
▁enjoyed	-3485
▁easier	-3486
▁friendly	-3487
▁Loc	-3488
ederal	-3489
▁steel	-3490
▁police	-3491
▁welcome	-3492
▁master	-3493
▁gas	-3494
bon	-3495
▁pet	-3496
▁ing	-3497
▁grand	-3498
▁benefit	-3499
▁Je	-3500
▁fair	-3501
arlier	-3502
idential	-3503
▁schedule	-3504
▁maybe	-3505
▁Class	-3506
unk	-3507
▁acqu	-3508
▁reports	-3509
ship	-3510
▁Ass	-3511
▁Make	-3512
▁Cap	-3513
▁rock	-3514
▁manufacturer	-3515
99	-3516
ronic	-3517
▁During	-3518
▁dy	-3519
▁stuff	-3520
ologies	-3521
urning	-3522
esome	-3523
▁Sing	-3524
▁partner	-3525
▁explore	-3526
▁advert	-3527
ald	-3528
iger	-3529
▁background	-3530
▁wind	-3531
▁evening	-3532
pects	-3533
▁Wednesday	-3534
▁beginning	-3535
▁0.	-3536
▁eyes	-3537
inter	-3538
▁subs	-3539
▁excited	-3540
▁Phot	-3541
▁distribut	-3542
uses	-3543
▁sus	-3544
▁physical	-3545
formation	-3546
icing	-3547
▁creative	-3548
▁unit	-3549
▁Other	-3550
▁batter	-3551
▁blood	-3552
▁obtain	-3553
omen	-3554
▁fant	-3555
anging	-3556
▁driving	-3557
ID	-3558
more	-3559
▁reve	-3560
▁Mac	-3561
rel	-3562
▁Develop	-3563
▁existing	-3564
▁TO	-3565
▁tag	-3566
hol	-3567
▁nut	-3568
▁named	-3569
▁assess	-3570
▁player	-3571
▁Lear	-3572
▁Hall	-3573
▁doll	-3574
▁dedicated	-3575
▁$1	-3576
▁looked	-3577
▁22	-3578
allery	-3579
▁Av	-3580
▁wrote	-3581
▁object	-3582
In	-3583
▁Tom	-3584
alu	-3585
▁appropri	-3586
▁•	-3587
friend	-3588
▁kn	-3589
iques	-3590
▁mention	-3591
asc	-3592
phone	-3593
▁listen	-3594
-4	-3595
▁proud	-3596
▁rights	-3597
▁retail	-3598
__	-3599
vest	-3600
▁independ	-3601
▁nation	-3602
ari	-3603
▁charge	-3604
▁demand	-3605
▁damage	-3606
▁Tuesday	-3607
▁pressure	-3608
rom	-3609
▁mist	-3610
▁AN	-3611
▁Cur	-3612
imal	-3613
aint	-3614
▁ver	-3615
▁craft	-3616
AD	-3617
bert	-3618
▁served	-3619
▁teams	-3620
▁thous	-3621
▁devices	-3622
▁considered	-3623
▁war	-3624
▁cars	-3625
▁item	-3626
▁happen	-3627
▁learned	-3628
ops	-3629
andsc	-3630
▁Council	-3631
▁cleaning	-3632
uth	-3633
▁Wall	-3634
isions	-3635
duc	-3636
estern	-3637
field	-3638
▁colors	-3639
▁discount	-3640
▁models	-3641
PS	-3642
▁wants	-3643
▁definitely	-3644
▁reasons	-3645
▁flav	-3646
▁pow	-3647
▁increasing	-3648
▁button	-3649
▁daughter	-3650
▁trou	-3651
▁Road	-3652
▁setting	-3653
EM	-3654
▁Pal	-3655
▁husband	-3656
word	-3657
▁Sch	-3658
▁Use	-3659
▁Download	-3660
fit	-3661
▁metal	-3662
▁title	-3663
isc	-3664
za	-3665
▁passion	-3666
▁vict	-3667
▁brought	-3668
olute	-3669
▁Office	-3670
▁log	-3671
▁paid	-3672
lands	-3673
▁behav	-3674
▁Company	-3675
▁attract	-3676
road	-3677
▁Es	-3678
▁soci	-3679
xic	-3680
▁technical	-3681
▁facilities	-3682
▁exciting	-3683
▁delicious	-3684
▁window	-3685
vant	-3686
fast	-3687
▁transfer	-3688
▁earth	-3689
8,	-3690
▁Sum	-3691
▁sust	-3692
▁secure	-3693
▁transl	-3694
etic	-3695
▁cry	-3696
▁compon	-3697
▁Management	-3698
▁frequ	-3699
▁cove	-3700
▁err	-3701
▁contain	-3702
▁stick	-3703
▁adjust	-3704
▁rates	-3705
▁talking	-3706
200	-3707
▁born	-3708
rem	-3709
ey	-3710
▁IS	-3711
▁bow	-3712
▁advanced	-3713
▁sand	-3714
▁forget	-3715
▁patient	-3716
▁powerful	-3717
▁cup	-3718
▁stru	-3719
oles	-3720
▁poor	-3721
▁Tex	-3722
It	-3723
▁26	-3724
▁clin	-3725
itary	-3726
▁dead	-3727
▁pred	-3728
▁contains	-3729
▁graph	-3730
atically	-3731
▁response	-3732
pite	-3733
▁Mal	-3734
▁pieces	-3735
▁update	-3736
▁Water	-3737
antly	-3738
▁Washing	-3739
▁viol	-3740
istics	-3741
▁helped	-3742
▁fight	-3743
7,	-3744
▁Educ	-3745
▁plus	-3746
▁cards	-3747
▁everyday	-3748
venue	-3749
▁expand	-3750
care	-3751
▁volunte	-3752
▁Micro	-3753
▁views	-3754
▁Web	-3755
-5	-3756
▁Mem	-3757
▁payment	-3758
▁dire	-3759
▁pull	-3760
het	-3761
▁Sub	-3762
▁basic	-3763
▁continu	-3764
▁swim	-3765
▁approx	-3766
▁attempt	-3767
▁camera	-3768
▁Whether	-3769
9,	-3770
▁News	-3771
▁heavy	-3772
agram	-3773
14	-3774
▁dro	-3775
icip	-3776
▁protection	-3777
overn	-3778
rapy	-3779
▁Sk	-3780
istered	-3781
ortunately	-3782
tion	-3783
▁flex	-3784
▁guests	-3785
▁Sil	-3786
▁Super	-3787
▁Board	-3788
▁proced	-3789
▁overall	-3790
▁Jack	-3791
▁Plan	-3792
▁experiences	-3793
▁installation	-3794
▁rooms	-3795
▁smooth	-3796
▁surface	-3797
rey	-3798
▁opin	-3799
▁jobs	-3800
ategy	-3801
▁lines	-3802
▁listed	-3803
iation	-3804
ders	-3805
paper	-3806
▁mail	-3807
▁Flor	-3808
▁demon	-3809
▁frame	-3810
▁outdoor	-3811
▁speaking	-3812
ray	-3813
▁beach	-3814
▁songs	-3815
ael	-3816
▁responsible	-3817
▁science	-3818
ga	-3819
wise	-3820
▁waiting	-3821
BC	-3822
▁truly	-3823
▁saying	-3824
▁artist	-3825
▁dat	-3826
kyo	-3827
▁candid	-3828
▁reviews	-3829
▁luck	-3830
▁designs	-3831
▁occas	-3832
erg	-3833
▁immediately	-3834
fl	-3835
▁USA	-3836
▁middle	-3837
▁challenge	-3838
▁jud	-3839
odes	-3840
inated	-3841
▁journey	-3842
▁Ann	-3843
▁flu	-3844
▁peace	-3845
▁produce	-3846
que	-3847
▁Top	-3848
▁Ir	-3849
acity	-3850
▁Care	-3851
▁defe	-3852
irr	-3853
▁moved	-3854
▁aff	-3855
▁Mor	-3856
▁trade	-3857
▁Somet	-3858
set	-3859
▁owner	-3860
▁turned	-3861
▁respond	-3862
▁communication	-3863
▁manage	-3864
▁passed	-3865
oos	-3866
88	-3867
▁British	-3868
mar	-3869
plate	-3870
▁journal	-3871
▁teaching	-3872
▁race	-3873
▁initial	-3874
▁maintenance	-3875
aming	-3876
▁vill	-3877
▁voice	-3878
▁established	-3879
US	-3880
tra	-3881
▁spirit	-3882
▁wine	-3883
▁opening	-3884
13	-3885
aling	-3886
▁Tokyo	-3887
▁lux	-3888
▁chem	-3889
ibly	-3890
sych	-3891
▁basis	-3892
IP	-3893
▁Lake	-3894
▁fill	-3895
▁alone	-3896
▁miles	-3897
▁THE	-3898
▁economic	-3899
▁cheap	-3900
▁sup	-3901
▁studies	-3902
▁pen	-3903
▁beauty	-3904
haps	-3905
▁standards	-3906
▁competition	-3907
▁roof	-3908
▁Bay	-3909
▁joined	-3910
ij	-3911
▁fans	-3912
▁motor	-3913
dom	-3914
▁Engine	-3915
▁Maybe	-3916
▁People	-3917
▁academ	-3918
▁nearly	-3919
▁comments	-3920
▁23	-3921
▁bottom	-3922
▁fly	-3923
ieved	-3924
▁beyond	-3925
▁emot	-3926
▁normal	-3927
▁disease	-3928
box	-3929
▁ST	-3930
▁extremely	-3931
▁Life	-3932
▁dram	-3933
▁vacation	-3934
▁director	-3935
ym	-3936
▁David	-3937
▁Power	-3938
▁covered	-3939
oly	-3940
▁Elect	-3941
▁brok	-3942
▁sea	-3943
▁Rock	-3944
▁developing	-3945
▁Texas	-3946
▁Sur	-3947
▁mission	-3948
eds	-3949
▁Next	-3950
▁numbers	-3951
▁Bank	-3952
undred	-3953
500	-3954
▁appropriate	-3955
▁Washington	-3956
▁Wood	-3957
▁Hel	-3958
90	-3959
▁straight	-3960
▁ton	-3961
unning	-3962
▁traffic	-3963
oices	-3964
▁rich	-3965
▁taste	-3966
▁movies	-3967
▁tickets	-3968
▁ter	-3969
▁wild	-3970
▁Take	-3971
▁exclus	-3972
▁scient	-3973
▁effects	-3974
▁Est	-3975
▁mill	-3976
dy	-3977
▁capital	-3978
▁launch	-3979
works	-3980
▁^	-3981
▁Fam	-3982
▁shoot	-3983
iency	-3984
▁driver	-3985
▁earlier	-3986
▁length	-3987
▁cru	-3988
▁organizations	-3989
▁methods	-3990
▁Institute	-3991
▁increased	-3992
▁www	-3993
▁mer	-3994
▁Child	-3995
▁session	-3996
othing	-3997
▁compared	-3998
▁conference	-3999
▁cancer	-4000
75	-4001
▁occur	-4002
▁classic	-4003
▁hospital	-4004
▁teach	-4005
ios	-4006
mitted	-4007
istr	-4008
▁Su	-4009
▁Ide	-4010
▁happened	-4011
ago	-4012
▁Director	-4013
ustr	-4014
itude	-4015
▁birthday	-4016
-6	-4017
ribute	-4018
▁liter	-4019
▁extend	-4020
▁seeing	-4021
▁Research	-4022
imb	-4023
ixt	-4024
▁brother	-4025
apers	-4026
▁selected	-4027
▁prepare	-4028
▁ingred	-4029
▁Contact	-4030
ously	-4031
▁subst	-4032
nded	-4033
▁Ob	-4034
▁videos	-4035
▁billion	-4036
▁listening	-4037
▁80	-4038
▁Lang	-4039
hone	-4040
▁fat	-4041
ctors	-4042
▁Yes	-4043
ulated	-4044
▁Dri	-4045
IM	-4046
pet	-4047
anta	-4048
cut	-4049
▁Paul	-4050
▁architect	-4051
▁Mag	-4052
rehens	-4053
▁Dan	-4054
standing	-4055
/2	-4056
▁5.	-4057
order	-4058
▁residents	-4059
▁accommod	-4060
ipl	-4061
▁Govern	-4062
▁worksh	-4063
noon	-4064
othes	-4065
▁street	-4066
▁efforts	-4067
▁Hy	-4068
soft	-4069
▁util	-4070
▁letter	-4071
orial	-4072
▁Open	-4073
▁evalu	-4074
▁strength	-4075
inate	-4076
ancy	-4077
akers	-4078
ION	-4079
▁structure	-4080
▁Fore	-4081
▁lack	-4082
▁cream	-4083
vin	-4084
▁measure	-4085
▁techniques	-4086
▁Custom	-4087
asy	-4088
▁native	-4089
▁statement	-4090
overed	-4091
▁onto	-4092
-20	-4093
ech	-4094
▁bright	-4095
▁Build	-4096
▁spread	-4097
▁advantage	-4098
▁Two	-4099
▁dining	-4100
▁shown	-4101
▁shape	-4102
▁properties	-4103
mp	-4104
▁names	-4105
itar	-4106
▁resist	-4107
▁although	-4108
rical	-4109
▁Cong	-4110
▁100%	-4111
▁girls	-4112
!!!	-4113
▁tips	-4114
▁Tem	-4115
▁solid	-4116
▁veget	-4117
▁absolute	-4118
▁sched	-4119
▁teachers	-4120
▁sad	-4121
:30	-4122
ales	-4123
▁Sun	-4124
▁landsc	-4125
▁associated	-4126
apt	-4127
▁River	-4128
▁tim	-4129
hy	-4130
▁fra	-4131
▁Real	-4132
▁Adv	-4133
▁plants	-4134
▁cast	-4135
▁innovative	-4136
▁General	-4137
▁colour	-4138
▁eating	-4139
▁challenges	-4140
▁identify	-4141
azon	-4142
▁rules	-4143
▁communities	-4144
nding	-4145
LE	-4146
▁Music	-4147
▁initi	-4148
▁seven	-4149
▁church	-4150
▁Mount	-4151
▁disapp	-4152
oma	-4153
▁temperature	-4154
▁2014	-4155
▁sharing	-4156
▁drop	-4157
▁knew	-4158
▁facility	-4159
▁Rel	-4160
aled	-4161
force	-4162
▁chann	-4163
▁incred	-4164
▁handle	-4165
▁prot	-4166
encies	-4167
ampions	-4168
▁expensive	-4169
▁cabin	-4170
▁steps	-4171
▁Special	-4172
icon	-4173
▁Profess	-4174
aith	-4175
▁Camp	-4176
▁tired	-4177
▁produced	-4178
▁stone	-4179
ady	-4180
▁Ret	-4181
▁cas	-4182
▁workers	-4183
▁department	-4184
▁Ve	-4185
ivil	-4186
▁surv	-4187
iny	-4188
azine	-4189
▁@	-4190
▁Church	-4191
▁operations	-4192
▁hundred	-4193
▁Vol	-4194
▁bur	-4195
ota	-4196
▁ahead	-4197
▁Beach	-4198
▁mechan	-4199
▁visitors	-4200
▁prepared	-4201
▁bul	-4202
▁strategy	-4203
▁courses	-4204
▁dep	-4205
ka	-4206
▁shot	-4207
▁remain	-4208
▁eight	-4209
ado	-4210
see	-4211
▁institut	-4212
▁tree	-4213
▁map	-4214
arily	-4215
bu	-4216
▁gone	-4217
▁package	-4218
▁updated	-4219
▁Africa	-4220
▁Bre	-4221
▁novel	-4222
▁II	-4223
▁guess	-4224
▁notice	-4225
hips	-4226
term	-4227
▁artists	-4228
hi	-4229
▁Its	-4230
ishes	-4231
▁ice	-4232
▁pleas	-4233
▁flowers	-4234
ails	-4235
atever	-4236
▁leader	-4237
▁afternoon	-4238
▁Jes	-4239
▁characters	-4240
▁expertise	-4241
▁Fire	-4242
ports	-4243
▁Blue	-4244
▁opened	-4245
▁president	-4246
▁crusher	-4247
▁watched	-4248
▁Hol	-4249
▁William	-4250
▁biggest	-4251
▁keeping	-4252
icken	-4253
▁Apple	-4254
▁shared	-4255
ocolate	-4256
gency	-4257
▁arrange	-4258
ona	-4259
▁links	-4260
▁states	-4261
▁mis	-4262
▁Light	-4263
45	-4264
▁AM	-4265
▁Char	-4266
▁allowed	-4267
▁90	-4268
▁finding	-4269
▁manager	-4270
ula	-4271
▁Public	-4272
▁doctor	-4273
▁Florida	-4274
▁sector	-4275
▁followed	-4276
▁Star	-4277
▁Hi	-4278
▁Sa	-4279
ston	-4280
▁Community	-4281
▁testing	-4282
▁Rich	-4283
▁fabric	-4284
▁sounds	-4285
▁guid	-4286
▁England	-4287
▁Back	-4288
ervation	-4289
SS	-4290
erry	-4291
▁organis	-4292
▁buying	-4293
▁cloud	-4294
▁memory	-4295
▁advent	-4296
▁sustain	-4297
▁presented	-4298
▁Dem	-4299
▁Dra	-4300
▁political	-4301
▁AC	-4302
▁Angel	-4303
▁Mot	-4304
▁larger	-4305
",	-4306
▁remove	-4307
▁pair	-4308
td	-4309
▁fee	-4310
▁task	-4311
▁category	-4312
▁server	-4313
▁stores	-4314
▁adding	-4315
▁register	-4316
▁extensive	-4317
▁Mo	-4318
▁multi	-4319
iration	-4320
▁affordable	-4321
OW	-4322
▁theme	-4323
▁wire	-4324
▁sem	-4325
▁requires	-4326
inger	-4327
ulate	-4328
▁capacity	-4329
▁catch	-4330
▁laun	-4331
▁rob	-4332
▁cart	-4333
mal	-4334
▁exchange	-4335
rees	-4336
▁Arch	-4337
▁plastic	-4338
▁Education	-4339
▁fantastic	-4340
▁senior	-4341
▁practices	-4342
mat	-4343
free	-4344
▁flat	-4345
▁menu	-4346
▁awesome	-4347
▁interior	-4348
ette	-4349
ows	-4350
ooper	-4351
▁rank	-4352
ero	-4353
▁whose	-4354
▁advance	-4355
/20	-4356
▁AP	-4357
▁restaurants	-4358
▁primary	-4359
night	-4360
▁Pay	-4361
ounds	-4362
acing	-4363
down	-4364
▁princ	-4365
▁sport	-4366
▁discover	-4367
▁sto	-4368
▁connection	-4369
▁brings	-4370
▁suitable	-4371
▁older	-4372
▁tast	-4373
▁Before	-4374
▁society	-4375
▁parking	-4376
ano	-4377
▁Ev	-4378
yn	-4379
▁fem	-4380
▁Who	-4381
▁datab	-4382
▁sort	-4383
▁walking	-4384
Ch	-4385
semb	-4386
▁vot	-4387
▁Wel	-4388
▁Foundation	-4389
▁surg	-4390
▁Glo	-4391
▁talent	-4392
▁2013	-4393
▁28	-4394
▁cit	-4395
▁strugg	-4396
iber	-4397
craft	-4398
▁kept	-4399
▁Mark	-4400
▁Fil	-4401
▁70	-4402
▁lovely	-4403
▁visual	-4404
uled	-4405
▁values	-4406
▁James	-4407
omb	-4408
▁corporate	-4409
chers	-4410
▁closed	-4411
▁plenty	-4412
▁comprehens	-4413
▁Mil	-4414
▁Mill	-4415
▁library	-4416
▁worry	-4417
▁slight	-4418
iment	-4419
▁dance	-4420
▁breat	-4421
VE	-4422
active	-4423
▁dang	-4424
▁Enter	-4425
▁format	-4426
▁particularly	-4427
▁greater	-4428
▁economy	-4429
▁er	-4430
sequ	-4431
itors	-4432
ying	-4433
▁incor	-4434
apos	-4435
▁Main	-4436
▁tea	-4437
▁upgra	-4438
▁waste	-4439
▁Soc	-4440
▁installed	-4441
▁Under	-4442
▁demonstr	-4443
▁Mary	-4444
5,	-4445
ception	-4446
orry	-4447
▁Online	-4448
▁square	-4449
rete	-4450
▁conversation	-4451
▁fold	-4452
▁encourage	-4453
▁exercise	-4454
▁critical	-4455
▁investig	-4456
▁animals	-4457
▁changing	-4458
oman	-4459
▁Michael	-4460
▁Court	-4461
▁becoming	-4462
PA	-4463
▁guys	-4464
▁terr	-4465
▁Sam	-4466
▁Island	-4467
▁centre	-4468
▁selling	-4469
▁Big	-4470
▁kinds	-4471
▁Korean	-4472
rics	-4473
uce	-4474
▁PR	-4475
isher	-4476
▁shel	-4477
▁serving	-4478
▁elements	-4479
▁bird	-4480
▁reliable	-4481
▁Ty	-4482
▁assign	-4483
▁Mad	-4484
▁glad	-4485
▁certainly	-4486
▁micro	-4487
▁pm	-4488
6,	-4489
▁Set	-4490
▁shipping	-4491
DA	-4492
▁origin	-4493
▁placed	-4494
▁runs	-4495
▁Str	-4496
umin	-4497
TS	-4498
▁medium	-4499
▁remind	-4500
▁brain	-4501
▁recommended	-4502
▁Color	-4503
▁Through	-4504
reed	-4505
▁combination	-4506
emporary	-4507
sp	-4508
arge	-4509
▁starts	-4510
▁counter	-4511
▁Sometimes	-4512
▁Development	-4513
▁egg	-4514
▁Their	-4515
▁Where	-4516
▁rare	-4517
▁ride	-4518
▁approximately	-4519
▁forms	-4520
▁balance	-4521
▁central	-4522
▁~	-4523
rief	-4524
▁Bal	-4525
▁Team	-4526
▁vehicles	-4527
▁population	-4528
▁Korea	-4529
ifts	-4530
▁unf	-4531
▁visiting	-4532
▁operating	-4533
▁CD	-4534
▁Trump	-4535
▁Wr	-4536
▁beg	-4537
▁Roy	-4538
▁quarter	-4539
▁ingredients	-4540
▁mo	-4541
▁hom	-4542
▁dial	-4543
▁cities	-4544
▁sets	-4545
▁shall	-4546
bour	-4547
overy	-4548
▁bill	-4549
▁District	-4550
well	-4551
▁Time	-4552
▁Exper	-4553
▁HD	-4554
ya	-4555
▁operation	-4556
▁Rob	-4557
▁announce	-4558
ads	-4559
vision	-4560
▁Science	-4561
UR	-4562
▁List	-4563
▁breakfast	-4564
▁distance	-4565
▁Mart	-4566
dd	-4567
▁photograph	-4568
ipp	-4569
▁lock	-4570
▁thousands	-4571
rd	-4572
outhern	-4573
▁Central	-4574
▁topic	-4575
▁2018.	-4576
▁Start	-4577
”,	-4578
▁Det	-4579
▁Lou	-4580
▁suff	-4581
▁district	-4582
▁pros	-4583
▁deals	-4584
▁units	-4585
▁valu	-4586
▁compos	-4587
mail	-4588
▁Both	-4589
▁industrial	-4590
▁died	-4591
▁sister	-4592
▁chair	-4593
▁chat	-4594
▁audience	-4595
▁Pet	-4596
▁south	-4597
▁registered	-4598
pher	-4599
▁Valley	-4600
▁Grand	-4601
enses	-4602
estic	-4603
iled	-4604
▁locations	-4605
▁century	-4606
▁decide	-4607
ugg	-4608
▁showing	-4609
▁Mach	-4610
▁Another	-4611
▁convenient	-4612
▁maximum	-4613
▁Word	-4614
▁gain	-4615
▁harm	-4616
▁agency	-4617
▁corner	-4618
▁threat	-4619
LC	-4620
net	-4621
look	-4622
▁doub	-4623
▁brows	-4624
▁appointment	-4625
▁helpful	-4626
▁Technology	-4627
▁relationships	-4628
▁numerous	-4629
▁recip	-4630
▁clothes	-4631
MS	-4632
▁records	-4633
▁iPhone	-4634
abilities	-4635
ello	-4636
▁tow	-4637
▁Twitter	-4638
▁committed	-4639
▁panel	-4640
▁minute	-4641
▁accident	-4642
▁establish	-4643
▁independent	-4644
▁documents	-4645
www	-4646
▁neighbor	-4647
▁assistance	-4648
▁seat	-4649
▁virt	-4650
▁funds	-4651
▁loan	-4652
▁himself	-4653
atively	-4654
essions	-4655
▁status	-4656
▁vision	-4657
▁desk	-4658
▁cute	-4659
▁Therefore	-4660
▁calls	-4661
▁windows	-4662
▁determine	-4663
▁confidence	-4664
▁adop	-4665
▁scen	-4666
▁wasn	-4667
using	-4668
▁diagn	-4669
▁Yesterday	-4670
▁income	-4671
▁Like	-4672
▁2,	-4673
▁197	-4674
▁practical	-4675
iest	-4676
fol	-4677
▁Chic	-4678
▁entertain	-4679
▁voc	-4680
iliar	-4681
▁saving	-4682
▁Note	-4683
▁Miss	-4684
▁separate	-4685
▁grade	-4686
▁trees	-4687
▁parties	-4688
▁leaves	-4689
▁upload	-4690
oop	-4691
la	-4692
▁Android	-4693
▁Microsoft	-4694
▁reflect	-4695
▁Jesus	-4696
▁cooking	-4697
22	-4698
leg	-4699
▁inspired	-4700
▁epis	-4701
ushing	-4702
BA	-4703
illa	-4704
ores	-4705
▁Food	-4706
▁radio	-4707
▁battery	-4708
▁automatically	-4709
▁pal	-4710
▁movement	-4711
▁enhance	-4712
▁force	-4713
▁spons	-4714
icians	-4715
▁scene	-4716
▁environmental	-4717
IG	-4718
ront	-4719
▁Centre	-4720
▁detailed	-4721
ption	-4722
▁favour	-4723
appy	-4724
▁continues	-4725
▁figure	-4726
do	-4727
nown	-4728
eless	-4729
▁2012	-4730
▁presentation	-4731
▁arrived	-4732
▁Show	-4733
▁crow	-4734
win	-4735
▁pray	-4736
▁Medic	-4737
▁Family	-4738
▁dete	-4739
▁Que	-4740
▁http	-4741
▁Indust	-4742
▁brands	-4743
▁concerns	-4744
▁ang	-4745
▁Award	-4746
▁continued	-4747
▁compl	-4748
▁technologies	-4749
▁27	-4750
▁estim	-4751
▁shower	-4752
▁den	-4753
▁Academ	-4754
ellig	-4755
▁controll	-4756
▁500	-4757
▁optim	-4758
▁Sol	-4759
▁coverage	-4760
▁spect	-4761
▁laws	-4762
log	-4763
▁info	-4764
▁Amazon	-4765
▁provider	-4766
▁Town	-4767
▁tend	-4768
▁websites	-4769
uty	-4770
apter	-4771
▁Phil	-4772
▁trail	-4773
orthern	-4774
▁Cert	-4775
▁resear	-4776
CA	-4777
▁Recently	-4778
▁Ltd	-4779
vention	-4780
▁military	-4781
▁apart	-4782
▁Commit	-4783
▁markets	-4784
yer	-4785
▁=	-4786
▁Sl	-4787
▁Project	-4788
ivered	-4789
▁focused	-4790
▁island	-4791
oration	-4792
ownt	-4793
▁Hum	-4794
▁lose	-4795
▁articles	-4796
ki	-4797
▁painting	-4798
▁Hist	-4799
▁concert	-4800
osh	-4801
DF	-4802
▁Tor	-4803
▁neck	-4804
men	-4805
▁Ok	-4806
▁processes	-4807
▁Ce	-4808
▁Ital	-4809
▁NY	-4810
▁accur	-4811
ructure	-4812
▁flight	-4813
▁Information	-4814
▁recipe	-4815
▁van	-4816
▁leadership	-4817
▁caused	-4818
▁connected	-4819
usion	-4820
▁managed	-4821
▁joint	-4822
▁fuel	-4823
▁comprehensive	-4824
▁Nor	-4825
going	-4826
▁AL	-4827
▁therefore	-4828
iers	-4829
▁German	-4830
▁Festival	-4831
▁competitive	-4832
▁motiv	-4833
▁France	-4834
▁Di	-4835
▁applied	-4836
▁festival	-4837
bed	-4838
▁Long	-4839
▁manufacturing	-4840
▁leaving	-4841
▁anywhere	-4842
▁strategies	-4843
-8	-4844
▁Ben	-4845
▁Mel	-4846
uration	-4847
▁buildings	-4848
gen	-4849
▁forg	-4850
▁refer	-4851
pective	-4852
▁Alex	-4853
▁Follow	-4854
▁meal	-4855
▁Social	-4856
▁rat	-4857
een	-4858
▁raised	-4859
▁studied	-4860
▁diet	-4861
▁ship	-4862
▁concent	-4863
▁drug	-4864
▁football	-4865
oe	-4866
▁fees	-4867
actions	-4868
▁opinion	-4869
ferences	-4870
▁adults	-4871
▁filled	-4872
▁guarantee	-4873
rian	-4874
35	-4875
▁engineering	-4876
24	-4877
▁appreciate	-4878
▁fruit	-4879
▁launched	-4880
wr	-4881
▁becomes	-4882
▁relevant	-4883
▁abroad	-4884
▁resolution	-4885
▁CA	-4886
cohol	-4887
▁relig	-4888
▁alternative	-4889
▁actual	-4890
cean	-4891
▁core	-4892
▁processing	-4893
▁limit	-4894
▁knows	-4895
▁transform	-4896
▁UN	-4897
aven	-4898
▁sav	-4899
gn	-4900
▁calc	-4901
▁combined	-4902
▁element	-4903
▁Vir	-4904
▁doors	-4905
▁emp	-4906
life	-4907
▁haven	-4908
▁Att	-4909
▁survey	-4910
▁chocolate	-4911
chest	-4912
▁ticket	-4913
▁labor	-4914
▁ven	-4915
▁Anyway	-4916
▁Master	-4917
▁Society	-4918
▁performed	-4919
▁properly	-4920
▁Lim	-4921
▁Christian	-4922
▁lived	-4923
▁6.	-4924
▁promote	-4925
▁Head	-4926
▁minimum	-4927
▁Stand	-4928
▁grant	-4929
▁funding	-4930
gal	-4931
▁fol	-4932
eared	-4933
▁Does	-4934
▁Bet	-4935
▁Sand	-4936
▁bask	-4937
▁Hill	-4938
liance	-4939
▁seconds	-4940
alls	-4941
▁surf	-4942
▁guest	-4943
osen	-4944
iance	-4945
met	-4946
isl	-4947
▁Only	-4948
arrant	-4949
▁bike	-4950
▁academic	-4951
▁languages	-4952
mosp	-4953
▁profile	-4954
0.	-4955
cles	-4956
aser	-4957
hab	-4958
itz	-4959
▁happens	-4960
▁fear	-4961
▁sch	-4962
▁graduate	-4963
osure	-4964
▁skill	-4965
▁View	-4966
▁faith	-4967
▁Medical	-4968
▁north	-4969
osing	-4970
▁surprised	-4971
▁injury	-4972
▁35	-4973
icks	-4974
text	-4975
▁Finally	-4976
fin	-4977
▁ban	-4978
▁Mexic	-4979
▁Commission	-4980
ae	-4981
▁2011	-4982
▁reality	-4983
BS	-4984
amm	-4985
▁Lo	-4986
▁Hope	-4987
ternal	-4988
▁factors	-4989
▁delivered	-4990
▁purs	-4991
▁anti	-4992
▁Museum	-4993
▁talked	-4994
eed	-4995
▁psych	-4996
▁updates	-4997
estyle	-4998
▁premium	-4999
▁thoughts	-5000
▁Tur	-5001
▁Arts	-5002
▁Keep	-5003
▁database	-5004
itate	-5005
▁Dig	-5006
▁Rad	-5007
▁Thom	-5008
▁Germany	-5009
▁dynam	-5010
▁Full	-5011
▁aren	-5012
▁reput	-5013
▁married	-5014
▁sources	-5015
prise	-5016
▁switch	-5017
inations	-5018
▁spending	-5019
▁Lead	-5020
65	-5021
udden	-5022
▁commitment	-5023
OC	-5024
▁Sky	-5025
issions	-5026
▁educational	-5027
▁rice	-5028
iability	-5029
▁thick	-5030
unction	-5031
▁sugar	-5032
▁About	-5033
▁covers	-5034
reek	-5035
▁Prov	-5036
▁ring	-5037
▁honest	-5038
▁Pan	-5039
▁boo	-5040
▁Jour	-5041
▁secret	-5042
rs	-5043
pected	-5044
▁Tour	-5045
▁cake	-5046
▁Cy	-5047
▁PM	-5048
▁chemical	-5049
pan	-5050
▁allowing	-5051
▁generation	-5052
inding	-5053
▁posts	-5054
▁winning	-5055
▁shoes	-5056
▁Room	-5057
▁smaller	-5058
▁supplies	-5059
▁Cup	-5060
▁rap	-5061
▁lights	-5062
▁federal	-5063
▁emergency	-5064
▁Hand	-5065
▁Welcome	-5066
▁participants	-5067
IR	-5068
▁Mer	-5069
antic	-5070
▁2019.	-5071
▁surrounding	-5072
▁mine	-5073
▁AS	-5074
▁usual	-5075
IA	-5076
olars	-5077
atures	-5078
▁Committee	-5079
rab	-5080
▁wal	-5081
▁Soft	-5082
uries	-5083
ulture	-5084
▁Const	-5085
▁apartment	-5086
▁vent	-5087
▁Tri	-5088
▁decl	-5089
▁showed	-5090
▁importance	-5091
▁cultural	-5092
▁guy	-5093
rim	-5094
▁golf	-5095
▁gallery	-5096
▁Carol	-5097
▁kid	-5098
▁drivers	-5099
nel	-5100
▁Ber	-5101
▁supported	-5102
23	-5103
▁luxury	-5104
▁ID	-5105
lets	-5106
▁dogs	-5107
▁Spring	-5108
▁config	-5109
isco	-5110
44	-5111
UT	-5112
▁atmosp	-5113
▁decisions	-5114
ruit	-5115
ishing	-5116
▁evidence	-5117
ander	-5118
▁entr	-5119
oga	-5120
▁Step	-5121
▁sizes	-5122
▁Equ	-5123
▁Hotel	-5124
▁youth	-5125
▁Gal	-5126
▁Bill	-5127
▁Women	-5128
▁Second	-5129
▁RE	-5130
▁tun	-5131
▁eleg	-5132
▁audio	-5133
▁improved	-5134
▁worldwide	-5135
wan	-5136
ef	-5137
▁gather	-5138
▁manual	-5139
▁signed	-5140
▁leather	-5141
ocr	-5142
▁Aud	-5143
burg	-5144
▁bowl	-5145
ita	-5146
▁cris	-5147
-7	-5148
▁introduced	-5149
▁Ext	-5150
▁dish	-5151
▁studio	-5152
▁Mass	-5153
▁valid	-5154
atin	-5155
▁brown	-5156
▁aspects	-5157
▁29	-5158
orney	-5159
water	-5160
▁notes	-5161
▁Italian	-5162
▁surgery	-5163
▁celebrate	-5164
arp	-5165
▁CEO	-5166
vell	-5167
mes	-5168
▁lap	-5169
OD	-5170
outs	-5171
▁topics	-5172
▁sky	-5173
▁shops	-5174
▁generally	-5175
▁spl	-5176
▁beer	-5177
ola	-5178
▁lighting	-5179
▁45	-5180
▁Chicago	-5181
ta	-5182
▁chain	-5183
▁coord	-5184
▁foods	-5185
▁raise	-5186
▁Clean	-5187
▁League	-5188
▁Inte	-5189
▁Bed	-5190
▁direction	-5191
▁ju	-5192
▁dim	-5193
▁coast	-5194
anish	-5195
▁disp	-5196
ainless	-5197
▁absolutely	-5198
▁feedback	-5199
▁participate	-5200
▁beat	-5201
▁princip	-5202
▁featuring	-5203
▁reference	-5204
▁IP	-5205
▁valuable	-5206
oup	-5207
▁quot	-5208
▁Australian	-5209
amin	-5210
▁Enjoy	-5211
▁efficiency	-5212
▁explain	-5213
▁upcoming	-5214
umber	-5215
▁Mont	-5216
▁Using	-5217
▁(20	-5218
vere	-5219
▁tail	-5220
OP	-5221
atre	-5222
▁Card	-5223
▁familiar	-5224
eries	-5225
▁NE	-5226
▁cutting	-5227
uality	-5228
▁totally	-5229
▁nurs	-5230
▁funny	-5231
▁swimming	-5232
▁7.	-5233
▁Data	-5234
▁pump	-5235
▁scale	-5236
anna	-5237
▁truth	-5238
▁invent	-5239
▁previously	-5240
▁ate	-5241
▁shap	-5242
▁missing	-5243
▁wearing	-5244
▁components	-5245
ait	-5246
This	-5247
known	-5248
▁mini	-5249
▁faster	-5250
ache	-5251
▁Beaut	-5252
IF	-5253
▁license	-5254
▁presence	-5255
▁Sign	-5256
▁fields	-5257
▁Scott	-5258
lor	-5259
dra	-5260
▁Old	-5261
▁meat	-5262
▁AND	-5263
▁amb	-5264
inct	-5265
▁eth	-5266
▁rub	-5267
▁anc	-5268
▁Organ	-5269
▁jump	-5270
▁Plus	-5271
▁milk	-5272
▁mountain	-5273
▁tests	-5274
▁houses	-5275
▁citiz	-5276
edy	-5277
▁sym	-5278
orough	-5279
▁quiet	-5280
CH	-5281
▁jew	-5282
▁edge	-5283
▁Republic	-5284
▁magn	-5285
▁Canad	-5286
▁replacement	-5287
▁Dou	-5288
▁volume	-5289
▁resource	-5290
▁Press	-5291
▁monthly	-5292
▁rental	-5293
ographer	-5294
▁airport	-5295
▁trained	-5296
▁Network	-5297
▁reached	-5298
▁Children	-5299
rael	-5300
▁ended	-5301
▁meant	-5302
reens	-5303
rastructure	-5304
ennis	-5305
▁Media	-5306
▁enable	-5307
▁occasion	-5308
orgeous	-5309
▁Manager	-5310
ini	-5311
▁chicken	-5312
unior	-5313
▁belong	-5314
▁trading	-5315
▁responsibility	-5316
▁Addition	-5317
nect	-5318
▁measures	-5319
▁communicate	-5320
▁Learn	-5321
▁Offic	-5322
▁Looking	-5323
igan	-5324
▁appearance	-5325
VD	-5326
▁196	-5327
how	-5328
ifying	-5329
▁Div	-5330
▁OF	-5331
▁remains	-5332
▁scheduled	-5333
urban	-5334
▁perfectly	-5335
▁du	-5336
▁Cat	-5337
▁domain	-5338
▁ath	-5339
▁Matt	-5340
▁teeth	-5341
▁residential	-5342
van	-5343
▁featured	-5344
▁housing	-5345
▁contemporary	-5346
riage	-5347
▁electronic	-5348
.)	-5349
▁Atl	-5350
▁species	-5351
▁approved	-5352
ums	-5353
hent	-5354
▁repe	-5355
▁calling	-5356
wing	-5357
▁supporting	-5358
alend	-5359
▁Vict	-5360
▁boat	-5361
▁polic	-5362
▁depending	-5363
hus	-5364
▁300	-5365
prene	-5366
▁shut	-5367
▁stunning	-5368
olic	-5369
▁silver	-5370
osis	-5371
▁Watch	-5372
dered	-5373
▁Global	-5374
▁(2	-5375
▁sam	-5376
▁uns	-5377
▁butter	-5378
▁Series	-5379
▁Government	-5380
▁goods	-5381
▁visited	-5382
▁agreement	-5383
▁willing	-5384
▁neighborhood	-5385
▁registration	-5386
RA	-5387
▁sauce	-5388
▁tut	-5389
▁lessons	-5390
▁whatever	-5391
▁exclusive	-5392
CC	-5393
ulous	-5394
▁Bath	-5395
▁ourselves	-5396
▁gram	-5397
▁designer	-5398
itness	-5399
▁har	-5400
▁Small	-5401
▁crit	-5402
▁inspiration	-5403
iors	-5404
▁certific	-5405
amic	-5406
▁fle	-5407
▁Los	-5408
▁guitar	-5409
▁internal	-5410
▁Smith	-5411
▁Review	-5412
reprene	-5413
▁Asia	-5414
▁diam	-5415
▁Cam	-5416
▁Union	-5417
▁Sen	-5418
33	-5419
▁Gar	-5420
▁Franc	-5421
▁garage	-5422
▁licens	-5423
azz	-5424
inating	-5425
▁mental	-5426
▁forest	-5427
ician	-5428
▁Pack	-5429
▁delight	-5430
▁joy	-5431
▁coup	-5432
▁poll	-5433
▁sessions	-5434
▁Lab	-5435
▁taught	-5436
▁liqu	-5437
▁functions	-5438
▁stars	-5439
▁MS	-5440
▁accompl	-5441
▁mentioned	-5442
idden	-5443
▁lesson	-5444
▁Brown	-5445
▁error	-5446
▁consid	-5447
▁choices	-5448
▁icon	-5449
▁animal	-5450
▁highlight	-5451
berg	-5452
▁behavior	-5453
▁certified	-5454
ensions	-5455
point	-5456
▁Oper	-5457
▁couldn	-5458
▁spaces	-5459
▁climate	-5460
▁conduct	-5461
▁toward	-5462
▁machines	-5463
▁Bas	-5464
▁2017.	-5465
▁Though	-5466
▁alcohol	-5467
):	-5468
▁musical	-5469
▁trouble	-5470
▁entertainment	-5471
▁advis	-5472
▁Which	-5473
▁seemed	-5474
▁returned	-5475
▁medicine	-5476
▁regularly	-5477
▁cheese	-5478
▁mort	-5479
▁brief	-5480
▁slightly	-5481
UN	-5482
▁chart	-5483
▁Invest	-5484
▁perhaps	-5485
▁Security	-5486
aks	-5487
▁NOT	-5488
▁Tai	-5489
▁rid	-5490
▁dura	-5491
▁ON	-5492
▁elim	-5493
▁advertising	-5494
▁feels	-5495
▁Buy	-5496
▁thr	-5497
▁claims	-5498
▁gun	-5499
▁Students	-5500
▁Admin	-5501
▁seeking	-5502
▁Win	-5503
▁bread	-5504
▁solar	-5505
▁Actually	-5506
kin	-5507
▁salt	-5508
▁wheel	-5509
▁Mat	-5510
▁qualified	-5511
▁appeal	-5512
aste	-5513
▁Ma	-5514
▁spok	-5515
▁Access	-5516
▁crew	-5517
▁providers	-5518
ius	-5519
▁Ill	-5520
▁Minister	-5521
no	-5522
▁Place	-5523
▁chosen	-5524
▁quant	-5525
▁Wal	-5526
▁Disc	-5527
▁Police	-5528
▁purchased	-5529
▁atmosphere	-5530
▁Haw	-5531
▁plays	-5532
▁appears	-5533
REE	-5534
▁leads	-5535
▁2000	-5536
▁Fund	-5537
▁symb	-5538
▁discussion	-5539
▁auto	-5540
▁ment	-5541
▁supports	-5542
▁Ideas	-5543
▁Israel	-5544
▁Den	-5545
hentic	-5546
▁degrees	-5547
▁pin	-5548
▁spr	-5549
▁basket	-5550
▁greatest	-5551
MA	-5552
aked	-5553
iner	-5554
▁mostly	-5555
olutions	-5556
▁Western	-5557
yal	-5558
onds	-5559
istan	-5560
▁actions	-5561
han	-5562
alog	-5563
merce	-5564
▁owned	-5565
▁plate	-5566
▁impl	-5567
▁32	-5568
▁Squ	-5569
▁successfully	-5570
ups	-5571
zen	-5572
▁George	-5573
▁styles	-5574
owntown	-5575
ospit	-5576
▁hire	-5577
▁$2	-5578
nergy	-5579
▁coach	-5580
▁polit	-5581
▁cells	-5582
ario	-5583
▁Bur	-5584
▁programme	-5585
▁Test	-5586
▁output	-5587
sm	-5588
▁pleased	-5589
▁Mult	-5590
▁Spanish	-5591
▁depart	-5592
▁hearing	-5593
▁improving	-5594
ultural	-5595
▁broken	-5596
▁putting	-5597
Wh	-5598
▁specifically	-5599
▁diverse	-5600
▁Pub	-5601
▁YOU	-5602
▁scr	-5603
while	-5604
▁kick	-5605
orter	-5606
▁iron	-5607
▁bringing	-5608
▁MP	-5609
anda	-5610
otton	-5611
▁truck	-5612
▁Academy	-5613
▁Virgin	-5614
rate	-5615
▁Rest	-5616
oosing	-5617
anged	-5618
unting	-5619
▁fellow	-5620
▁planned	-5621
▁executive	-5622
intage	-5623
SA	-5624
▁policies	-5625
▁fell	-5626
▁Nov	-5627
lying	-5628
▁shock	-5629
▁victim	-5630
ulty	-5631
▁Very	-5632
▁throw	-5633
▁warrant	-5634
▁esc	-5635
▁plug	-5636
▁clearly	-5637
32	-5638
ucle	-5639
gment	-5640
▁civil	-5641
▁despite	-5642
NA	-5643
▁deck	-5644
▁fixed	-5645
▁Russian	-5646
▁edition	-5647
col	-5648
▁Paris	-5649
aration	-5650
▁Person	-5651
▁realized	-5652
▁(19	-5653
▁cro	-5654
▁employee	-5655
▁Royal	-5656
▁Those	-5657
▁nom	-5658
ersey	-5659
▁profit	-5660
▁confirm	-5661
▁31	-5662
umes	-5663
▁Cond	-5664
▁consumers	-5665
ixture	-5666
▁Kitchen	-5667
▁Cre	-5668
eline	-5669
▁caught	-5670
LA	-5671
▁Did	-5672
pes	-5673
▁Search	-5674
▁realize	-5675
list	-5676
remony	-5677
▁effectively	-5678
▁attended	-5679
▁thus	-5680
▁Bud	-5681
▁poly	-5682
▁nav	-5683
▁rot	-5684
▁compar	-5685
▁univers	-5686
▁accurate	-5687
▁accessories	-5688
95	-5689
▁nearby	-5690
▁messages	-5691
hetic	-5692
▁vary	-5693
▁sudden	-5694
▁favourite	-5695
▁serves	-5696
▁yellow	-5697
▁Lord	-5698
rition	-5699
▁Frank	-5700
▁twice	-5701
▁majority	-5702
▁8.	-5703
▁museum	-5704
▁consumer	-5705
▁speakers	-5706
▁(1	-5707
▁Ham	-5708
▁negative	-5709
▁lifestyle	-5710
iat	-5711
▁agent	-5712
▁template	-5713
▁stopped	-5714
▁<	-5715
▁settings	-5716
▁photography	-5717
▁belie	-5718
▁monit	-5719
▁trend	-5720
▁ur	-5721
▁likes	-5722
▁hundreds	-5723
▁searching	-5724
bre	-5725
▁Log	-5726
▁Prote	-5727
▁predict	-5728
bl	-5729
▁Ul	-5730
▁discovered	-5731
▁Land	-5732
▁vote	-5733
▁instructions	-5734
roy	-5735
▁Vide	-5736
west	-5737
rist	-5738
cious	-5739
▁drinking	-5740
ua	-5741
orable	-5742
▁Hello	-5743
▁tables	-5744
▁noticed	-5745
▁sitting	-5746
▁Mic	-5747
▁restrict	-5748
▁incredible	-5749
▁grown	-5750
▁disappoint	-5751
made	-5752
▁Living	-5753
▁recovery	-5754
▁Shop	-5755
▁occup	-5756
▁construct	-5757
▁concrete	-5758
flow	-5759
▁decre	-5760
▁meetings	-5761
▁partnership	-5762
▁accounts	-5763
vis	-5764
▁cooper	-5765
▁Control	-5766
▁invited	-5767
ste	-5768
▁CH	-5769
▁appeared	-5770
▁Mid	-5771
▁Table	-5772
▁asking	-5773
isk	-5774
▁Tim	-5775
▁innovation	-5776
▁organic	-5777
▁female	-5778
▁Hospital	-5779
▁Tre	-5780
▁submit	-5781
▁Louis	-5782
▁renew	-5783
▁river	-5784
▁equipped	-5785
▁obvious	-5786
▁arrest	-5787
▁electrical	-5788
▁script	-5789
▁tight	-5790
ria	-5791
▁bon	-5792
▁magazine	-5793
▁otherwise	-5794
▁landscape	-5795
PR	-5796
▁arm	-5797
apore	-5798
▁oven	-5799
▁Coast	-5800
▁removed	-5801
▁impressive	-5802
rowse	-5803
▁rise	-5804
irty	-5805
achel	-5806
▁pock	-5807
nament	-5808
▁rapid	-5809
▁quote	-5810
▁flexible	-5811
▁nerv	-5812
▁remote	-5813
▁dent	-5814
▁holds	-5815
▁holidays	-5816
▁boost	-5817
▁tough	-5818
▁Canadian	-5819
▁Wil	-5820
▁ben	-5821
▁Pass	-5822
▁Max	-5823
ala	-5824
inder	-5825
▁label	-5826
quality	-5827
▁complic	-5828
▁integrated	-5829
▁Ol	-5830
▁fulf	-5831
▁stret	-5832
▁recorded	-5833
▁Guys	-5834
▁Game	-5835
▁Party	-5836
▁smile	-5837
▁dental	-5838
▁outstanding	-5839
▁trial	-5840
▁manner	-5841
▁Support	-5842
▁crim	-5843
▁viewed	-5844
ushed	-5845
▁keeps	-5846
▁mouth	-5847
▁sheet	-5848
▁officials	-5849
▁healthcare	-5850
▁logo	-5851
▁African	-5852
▁therapy	-5853
husi	-5854
liers	-5855
▁Prem	-5856
▁orders	-5857
▁Current	-5858
itage	-5859
▁sentence	-5860
▁boys	-5861
▁simpl	-5862
abled	-5863
▁introduce	-5864
iano	-5865
loc	-5866
▁fourth	-5867
▁illustr	-5868
▁filter	-5869
▁recognized	-5870
▁Way	-5871
▁MA	-5872
▁die	-5873
▁mic	-5874
▁Earth	-5875
FL	-5876
▁800	-5877
CS	-5878
oking	-5879
▁Hard	-5880
▁dollars	-5881
▁carefully	-5882
▁unc	-5883
▁3,	-5884
▁Lu	-5885
▁Peter	-5886
rid	-5887
cling	-5888
▁arts	-5889
▁typically	-5890
▁administration	-5891
aka	-5892
▁mistakes	-5893
irms	-5894
▁campus	-5895
▁push	-5896
▁influence	-5897
▁ages	-5898
gl	-5899
▁essay	-5900
▁passeng	-5901
▁Sup	-5902
▁distribution	-5903
▁loves	-5904
pass	-5905
▁Farm	-5906
▁Key	-5907
ras	-5908
▁Unf	-5909
rier	-5910
▁rom	-5911
▁Cost	-5912
▁Zeal	-5913
▁interests	-5914
▁Ver	-5915
▁depos	-5916
▁awareness	-5917
TA	-5918
▁sides	-5919
▁affected	-5920
▁wid	-5921
otic	-5922
▁infrastructure	-5923
eper	-5924
▁legisl	-5925
▁Mobile	-5926
▁printed	-5927
▁oppos	-5928
▁winner	-5929
▁ec	-5930
gend	-5931
▁Cra	-5932
▁liked	-5933
▁answers	-5934
▁described	-5935
▁gifts	-5936
▁Systems	-5937
▁holding	-5938
▁collaboration	-5939
▁kill	-5940
ighter	-5941
iece	-5942
▁Angeles	-5943
▁sentences	-5944
▁accepted	-5945
▁village	-5946
▁enjoying	-5947
▁regional	-5948
▁pure	-5949
▁cable	-5950
▁signs	-5951
esides	-5952
▁fishing	-5953
▁gorgeous	-5954
▁feelings	-5955
▁improvement	-5956
▁rail	-5957
▁Zealand	-5958
ibilities	-5959
▁agencies	-5960
▁Happy	-5961
▁charges	-5962
▁integ	-5963
▁context	-5964
▁intellig	-5965
acks	-5966
asts	-5967
with	-5968
▁Price	-5969
▁desire	-5970
▁ap	-5971
▁Fair	-5972
fficient	-5973
▁Come	-5974
ears	-5975
▁rear	-5976
▁Journal	-5977
phas	-5978
▁Join	-5979
▁arrive	-5980
IV	-5981
weight	-5982
▁closely	-5983
▁Creat	-5984
alendar	-5985
▁Travel	-5986
▁Energy	-5987
▁Live	-5988
▁Robert	-5989
▁tagged	-5990
▁Low	-5991
▁attra	-5992
▁facil	-5993
race	-5994
▁upp	-5995
▁Made	-5996
▁domestic	-5997
asp	-5998
▁Van	-5999
▁Library	-6000
raid	-6001
▁manufacturers	-6002
▁mel	-6003
▁Week	-6004
lines	-6005
▁Singapore	-6006
▁situations	-6007
▁entrance	-6008
▁hardware	-6009
▁creation	-6010
▁sympt	-6011
▁channel	-6012
ca	-6013
elines	-6014
▁Silver	-6015
▁examples	-6016
▁cos	-6017
▁input	-6018
▁walls	-6019
▁enthusi	-6020
ena	-6021
gage	-6022
▁offices	-6023
▁readers	-6024
▁fif	-6025
ENT	-6026
▁2009	-6027
▁Trust	-6028
▁sample	-6029
▁dates	-6030
▁Comple	-6031
▁speaker	-6032
▁workshop	-6033
▁AR	-6034
▁perman	-6035
Sh	-6036
bur	-6037
king	-6038
▁Ire	-6039
▁Mov	-6040
▁candidates	-6041
▁DVD	-6042
▁Wild	-6043
▁apps	-6044
▁Conference	-6045
umps	-6046
▁kit	-6047
▁route	-6048
▁Further	-6049
CE	-6050
▁Walk	-6051
▁tasks	-6052
▁begins	-6053
100	-6054
▁debut	-6055
hire	-6056
stone	-6057
▁height	-6058
▁missed	-6059
▁exhibition	-6060
ags	-6061
▁wash	-6062
▁historical	-6063
▁Jew	-6064
▁pharm	-6065
profit	-6066
▁Victor	-6067
▁decades	-6068
▁aid	-6069
▁administr	-6070
dro	-6071
▁SP	-6072
case	-6073
▁Execut	-6074
▁conducted	-6075
▁vs	-6076
▁mal	-6077
▁wet	-6078
odies	-6079
▁films	-6080
▁hosting	-6081
▁Insurance	-6082
▁Cook	-6083
▁informed	-6084
▁employment	-6085
▁PS	-6086
away	-6087
date	-6088
▁television	-6089
▁Author	-6090
▁symbol	-6091
ords	-6092
▁nor	-6093
poration	-6094
▁dating	-6095
55	-6096
▁tall	-6097
▁shares	-6098
▁speech	-6099
▁instance	-6100
▁Engineering	-6101
▁fitness	-6102
then	-6103
▁thread	-6104
▁procedures	-6105
CT	-6106
▁jack	-6107
▁lect	-6108
▁Disney	-6109
gon	-6110
▁pod	-6111
▁Works	-6112
▁mixed	-6113
▁facing	-6114
▁destination	-6115
▁ceremony	-6116
▁classroom	-6117
rain	-6118
▁Cross	-6119
▁revenue	-6120
▁Need	-6121
▁weak	-6122
▁Italy	-6123
▁Steel	-6124
▁wouldn	-6125
▁phil	-6126
izza	-6127
▁expectations	-6128
▁reduced	-6129
folio	-6130
▁cop	-6131
▁charm	-6132
▁transportation	-6133
ye	-6134
▁forgot	-6135
ifications	-6136
▁ran	-6137
poses	-6138
▁burn	-6139
▁solve	-6140
olve	-6141
▁Digital	-6142
▁_	-6143
arsh	-6144
▁writer	-6145
▁strange	-6146
▁awarded	-6147
yard	-6148
▁Unfortunately	-6149
acter	-6150
▁Meet	-6151
oto	-6152
▁fo	-6153
▁Jim	-6154
▁Jose	-6155
▁proceed	-6156
edia	-6157
tered	-6158
▁scientific	-6159
ora	-6160
▁Chair	-6161
▁Assist	-6162
▁Russia	-6163
▁hall	-6164
▁Summer	-6165
▁command	-6166
▁wo	-6167
▁standing	-6168
▁carpet	-6169
vate	-6170
▁lit	-6171
▁treated	-6172
add	-6173
▁der	-6174
▁Chris	-6175
ailable	-6176
▁drawing	-6177
▁episode	-6178
▁nine	-6179
▁Garden	-6180
▁imagine	-6181
▁Men	-6182
▁ped	-6183
▁Print	-6184
ella	-6185
resp	-6186
▁fort	-6187
▁intended	-6188
▁payments	-6189
▁clinical	-6190
rency	-6191
▁Charl	-6192
▁climb	-6193
▁adventure	-6194
▁Id	-6195
▁Cas	-6196
▁causes	-6197
▁authentic	-6198
▁specialist	-6199
He	-6200
▁minor	-6201
▁©	-6202
▁FREE	-6203
▁satisfaction	-6204
▁reb	-6205
▁sick	-6206
▁failed	-6207
▁Champions	-6208
▁AT	-6209
▁Vill	-6210
▁mode	-6211
▁inches	-6212
▁earthqu	-6213
EE	-6214
▁ign	-6215
▁carried	-6216
itory	-6217
▁sight	-6218
▁Applic	-6219
▁Little	-6220
▁Bi	-6221
▁Pac	-6222
▁Congress	-6223
▁factory	-6224
▁privacy	-6225
▁Ken	-6226
▁Saf	-6227
iveness	-6228
▁depress	-6229
▁concerned	-6230
edu	-6231
cont	-6232
▁Lin	-6233
luding	-6234
▁frequently	-6235
▁considering	-6236
▁00	-6237
▁PA	-6238
cover	-6239
▁worse	-6240
iversary	-6241
36	-6242
▁Help	-6243
sembly	-6244
▁Chief	-6245
▁km	-6246
▁teen	-6247
▁dreams	-6248
▁worried	-6249
Re	-6250
▁Dev	-6251
▁elig	-6252
▁crowd	-6253
▁accessible	-6254
▁Fun	-6255
rible	-6256
▁Econom	-6257
▁Sports	-6258
▁assets	-6259
▁paying	-6260
▁circum	-6261
▁row	-6262
agues	-6263
▁trends	-6264
▁patterns	-6265
▁researchers	-6266
▁ends	-6267
▁clock	-6268
▁afraid	-6269
▁organized	-6270
▁Jul	-6271
▁Ball	-6272
▁Middle	-6273
▁issued	-6274
▁remaining	-6275
front	-6276
ications	-6277
hand	-6278
▁moist	-6279
▁Store	-6280
▁regul	-6281
car	-6282
▁killed	-6283
▁ordered	-6284
anges	-6285
▁tested	-6286
▁vegetables	-6287
▁upper	-6288
▁scholars	-6289
▁Fort	-6290
▁ease	-6291
lymp	-6292
irmed	-6293
▁emphas	-6294
▁whenever	-6295
▁Os	-6296
▁10.	-6297
▁conver	-6298
▁architecture	-6299
dem	-6300
▁Expl	-6301
asters	-6302
▁athlet	-6303
▁thorough	-6304
▁ok	-6305
uclear	-6306
▁bigger	-6307
▁operate	-6308
▁entreprene	-6309
▁Girl	-6310
You	-6311
▁2018,	-6312
▁Comput	-6313
▁Right	-6314
▁Would	-6315
▁dishes	-6316
▁knowing	-6317
inds	-6318
rupt	-6319
▁mainly	-6320
▁external	-6321
▁surprise	-6322
▁sustainable	-6323
▁Opt	-6324
▁Sar	-6325
▁purposes	-6326
▁awards	-6327
▁mining	-6328
GB	-6329
▁urban	-6330
▁choosing	-6331
ardens	-6332
▁attached	-6333
▁industries	-6334
▁PDF	-6335
▁presents	-6336
▁Er	-6337
▁Building	-6338
vy	-6339
atoes	-6340
isters	-6341
spe	-6342
▁Human	-6343
▁proposed	-6344
▁attractive	-6345
▁elegant	-6346
▁constantly	-6347
▁alle	-6348
▁hang	-6349
▁Santa	-6350
▁laptop	-6351
▁travell	-6352
yan	-6353
lete	-6354
▁vit	-6355
▁contest	-6356
oston	-6357
▁Gen	-6358
▁2016.	-6359
▁Mexico	-6360
▁entered	-6361
▁lucky	-6362
▁sorry	-6363
▁Code	-6364
▁Penn	-6365
▁inch	-6366
▁soul	-6367
▁breath	-6368
▁bedrooms	-6369
▁assessment	-6370
▁challenging	-6371
ilst	-6372
▁charged	-6373
▁extended	-6374
▁revealed	-6375
abet	-6376
herry	-6377
▁rule	-6378
▁investors	-6379
38	-6380
▁Boy	-6381
▁receiving	-6382
:0	-6383
▁Pot	-6384
under	-6385
▁dangerous	-6386
▁vir	-6387
▁blow	-6388
▁recy	-6389
▁Having	-6390
▁eventually	-6391
duate	-6392
mates	-6393
awa	-6394
▁Young	-6395
▁clothing	-6396
▁confident	-6397
-9	-6398
▁household	-6399
▁LED	-6400
▁adapt	-6401
▁subt	-6402
oral	-6403
▁pink	-6404
▁bound	-6405
▁editor	-6406
▁finest	-6407
▁..	-6408
quir	-6409
▁retire	-6410
▁preparing	-6411
▁Box	-6412
▁vend	-6413
▁whom	-6414
▁chief	-6415
▁citizens	-6416
ban	-6417
can	-6418
▁Ep	-6419
▁veter	-6420
oh	-6421
berry	-6422
▁foundation	-6423
▁CO	-6424
▁tub	-6425
▁fro	-6426
▁root	-6427
77	-6428
▁bags	-6429
illiant	-6430
▁Ireland	-6431
ccer	-6432
▁stream	-6433
▁matters	-6434
▁Proper	-6435
▁hospit	-6436
▁procedure	-6437
riger	-6438
▁reputation	-6439
▁unless	-6440
▁benefic	-6441
▁historic	-6442
weet	-6443
▁End	-6444
▁tur	-6445
▁Know	-6446
lights	-6447
▁superior	-6448
▁Hon	-6449
▁battle	-6450
▁gro	-6451
▁Instead	-6452
▁YouT	-6453
▁hero	-6454
/4	-6455
eller	-6456
▁Machine	-6457
▁Executive	-6458
▁commission	-6459
xy	-6460
▁tab	-6461
▁turns	-6462
▁bottle	-6463
▁strategic	-6464
▁AD	-6465
ouch	-6466
▁powder	-6467
▁Cast	-6468
▁staying	-6469
cers	-6470
gas	-6471
▁memories	-6472
▁interface	-6473
▁positions	-6474
▁Jud	-6475
▁2008	-6476
▁Mike	-6477
▁Should	-6478
▁Carolina	-6479
cue	-6480
▁savings	-6481
▁availability	-6482
▁OR	-6483
▁Ent	-6484
acious	-6485
▁picked	-6486
26	-6487
▁Olymp	-6488
▁stands	-6489
▁consists	-6490
▁boss	-6491
▁meals	-6492
’.	-6493
▁filed	-6494
▁prompt	-6495
▁performing	-6496
▁·	-6497
▁monitoring	-6498
▁gym	-6499
▁gear	-6500
▁founded	-6501
ss	-6502
ami	-6503
▁Dub	-6504
▁Thomas	-6505
▁dynamic	-6506
uzz	-6507
▁english	-6508
▁soph	-6509
▁crazy	-6510
▁earned	-6511
▁institutions	-6512
▁Times	-6513
▁48	-6514
▁Jeff	-6515
▁Scot	-6516
▁tonight	-6517
▁instruct	-6518
comes	-6519
▁protected	-6520
▁freed	-6521
▁Boston	-6522
▁Training	-6523
▁determined	-6524
▁Link	-6525
▁Georg	-6526
-10	-6527
yers	-6528
▁joining	-6529
▁Inf	-6530
▁contra	-6531
▁browser	-6532
▁Smart	-6533
esh	-6534
TH	-6535
▁horse	-6536
fection	-6537
▁younger	-6538
▁Virginia	-6539
ji	-6540
▁mirr	-6541
lace	-6542
▁symptoms	-6543
▁Quality	-6544
LS	-6545
▁Flo	-6546
▁debt	-6547
etry	-6548
▁bear	-6549
▁supposed	-6550
▁traveling	-6551
▁36	-6552
elly	-6553
▁Three	-6554
▁guidance	-6555
▁hob	-6556
28	-6557
ba	-6558
▁compare	-6559
days	-6560
▁pregn	-6561
TC	-6562
kes	-6563
▁Orig	-6564
▁Ash	-6565
▁Tit	-6566
▁flower	-6567
▁ongoing	-6568
▁sequ	-6569
ossible	-6570
resents	-6571
fa	-6572
▁SH	-6573
▁pron	-6574
holder	-6575
▁Awards	-6576
▁enables	-6577
▁extension	-6578
uts	-6579
▁engage	-6580
▁YouTube	-6581
▁Wi	-6582
▁Financial	-6583
▁400	-6584
ilipp	-6585
▁distinct	-6586
▁creates	-6587
▁possibly	-6588
▁Ari	-6589
▁expans	-6590
▁hotels	-6591
▁moments	-6592
▁Michigan	-6593
ima	-6594
ether	-6595
▁hosted	-6596
▁Airport	-6597
▁nervous	-6598
▁Image	-6599
▁codes	-6600
▁chose	-6601
▁Marketing	-6602
▁technique	-6603
PC	-6604
print	-6605
secut	-6606
bration	-6607
othe	-6608
▁anx	-6609
etime	-6610
▁Decor	-6611
▁Secret	-6612
▁typical	-6613
▁pleasure	-6614
▁collected	-6615
▁hate	-6616
▁marriage	-6617
▁agents	-6618
▁managing	-6619
bles	-6620
▁carbon	-6621
astern	-6622
lywood	-6623
▁toile	-6624
▁Southern	-6625
▁investigation	-6626
po	-6627
▁identified	-6628
▁Du	-6629
▁unex	-6630
▁vibr	-6631
▁seats	-6632
▁printing	-6633
▁visitor	-6634
▁tech	-6635
▁compat	-6636
▁Phys	-6637
▁drugs	-6638
▁laugh	-6639
▁significantly	-6640
UM	-6641
▁Four	-6642
▁doubt	-6643
▁Columb	-6644
39	-6645
▁Auto	-6646
▁rough	-6647
▁circumst	-6648
▁150	-6649
▁advoc	-6650
▁contribute	-6651
▁Video	-6652
▁Dom	-6653
▁Local	-6654
▁blend	-6655
▁Americans	-6656
hew	-6657
irts	-6658
zil	-6659
▁flavor	-6660
▁Ford	-6661
igr	-6662
▁FL	-6663
▁Die	-6664
▁Def	-6665
▁Account	-6666
▁emotional	-6667
▁Environment	-6668
▁twe	-6669
isation	-6670
stal	-6671
▁Asian	-6672
▁Install	-6673
▁listing	-6674
ament	-6675
▁prop	-6676
▁election	-6677
▁Sn	-6678
kins	-6679
▁ast	-6680
▁negot	-6681
▁stayed	-6682
elry	-6683
▁preparation	-6684
uits	-6685
▁entries	-6686
▁packages	-6687
▁represents	-6688
▁pil	-6689
▁Taiwan	-6690
▁injuries	-6691
▁Bob	-6692
▁severe	-6693
▁happening	-6694
▁originally	-6695
▁]	-6696
▁OS	-6697
▁hur	-6698
▁Games	-6699
rell	-6700
▁yes	-6701
▁noted	-6702
▁drinks	-6703
▁officer	-6704
▁engagement	-6705
va	-6706
▁ther	-6707
▁satisfied	-6708
Com	-6709
▁implementation	-6710
ava	-6711
plates	-6712
rum	-6713
▁achieved	-6714
29	-6715
iser	-6716
▁drama	-6717
▁volunteers	-6718
▁Try	-6719
▁phr	-6720
▁Area	-6721
▁Page	-6722
▁excess	-6723
▁Instagram	-6724
▁soil	-6725
▁factor	-6726
▁formal	-6727
▁finance	-6728
);	-6729
▁BE	-6730
▁hes	-6731
▁Select	-6732
5%	-6733
▁Want	-6734
▁mood	-6735
▁liquid	-6736
enced	-6737
▁proven	-6738
▁Federal	-6739
▁Job	-6740
▁portfolio	-6741
umni	-6742
▁grew	-6743
▁stainless	-6744
▁Visit	-6745
▁newly	-6746
▁membership	-6747
▁Toy	-6748
GE	-6749
▁Jersey	-6750
▁capture	-6751
iters	-6752
proof	-6753
▁publish	-6754
▁Everyone	-6755
ikes	-6756
▁argu	-6757
▁honor	-6758
21	-6759
▁Form	-6760
▁papers	-6761
igration	-6762
▁pricing	-6763
▁tap	-6764
▁hopes	-6765
▁exceptional	-6766
▁Kn	-6767
▁san	-6768
▁till	-6769
▁vital	-6770
▁password	-6771
site	-6772
▁Lee	-6773
orders	-6774
aturally	-6775
da	-6776
▁Ut	-6777
▁rand	-6778
hem	-6779
arks	-6780
▁Kim	-6781
▁fest	-6782
▁coc	-6783
rip	-6784
▁Copy	-6785
▁compr	-6786
pection	-6787
▁involve	-6788
oses	-6789
worth	-6790
▁depth	-6791
▁mixture	-6792
▁nar	-6793
▁Martin	-6794
ingu	-6795
ading	-6796
class	-6797
▁superv	-6798
34	-6799
aren	-6800
▁cycle	-6801
▁checked	-6802
▁virtual	-6803
▁ultimate	-6804
27	-6805
▁wra	-6806
▁layer	-6807
but	-6808
iate	-6809
▁Oil	-6810
▁Resume	-6811
▁reward	-6812
▁booking	-6813
▁programming	-6814
▁SC	-6815
▁Mean	-6816
▁dust	-6817
▁heating	-6818
▁confirmed	-6819
▁195	-6820
▁Night	-6821
▁widely	-6822
▁ancient	-6823
host	-6824
▁Mur	-6825
▁Sea	-6826
▁Pract	-6827
▁removal	-6828
▁monitor	-6829
HS	-6830
izer	-6831
▁obl	-6832
▁Point	-6833
▁affili	-6834
▁contrast	-6835
eling	-6836
oured	-6837
▁noise	-6838
▁returns	-6839
▁electricity	-6840
▁tank	-6841
▁licensed	-6842
▁instrument	-6843
▁Professional	-6844
????	-6845
iking	-6846
66	-6847
related	-6848
▁Democr	-6849
▁History	-6850
▁photographer	-6851
utch	-6852
▁colours	-6853
ani	-6854
▁rein	-6855
▁Heart	-6856
▁flood	-6857
▁treatments	-6858
DS	-6859
▁https	-6860
▁forces	-6861
▁conflic	-6862
▁volunteer	-6863
osc	-6864
mond	-6865
▁Bow	-6866
▁exceed	-6867
▁consultation	-6868
▁Rev	-6869
▁Beautiful	-6870
▁transition	-6871
▁Pin	-6872
▁ski	-6873
▁synt	-6874
▁deploy	-6875
illy	-6876
▁adm	-6877
▁bless	-6878
eration	-6879
▁repairs	-6880
▁Software	-6881
▁agreed	-6882
inem	-6883
▁McC	-6884
osoph	-6885
▁firms	-6886
▁suppliers	-6887
▁resume	-6888
▁developers	-6889
cket	-6890
▁west	-6891
▁failure	-6892
▁Hor	-6893
▁grass	-6894
▁Report	-6895
▁sex	-6896
riends	-6897
▁Crusher	-6898
▁Cir	-6899
▁ceiling	-6900
▁massive	-6901
▁expression	-6902
leep	-6903
neys	-6904
▁explained	-6905
uing	-6906
▁flag	-6907
tr	-6908
____	-6909
▁Arab	-6910
▁thin	-6911
▁Perform	-6912
▁handling	-6913
iler	-6914
wear	-6915
▁habit	-6916
bar	-6917
▁suc	-6918
▁closer	-6919
▁versions	-6920
▁4,	-6921
▁syn	-6922
▁fasc	-6923
▁tells	-6924
UL	-6925
amsung	-6926
▁tooth	-6927
▁Choose	-6928
▁Repair	-6929
ja	-6930
▁Professor	-6931
orters	-6932
terior	-6933
▁criminal	-6934
▁recipes	-6935
▁capabilities	-6936
▁hook	-6937
▁Cath	-6938
▁county	-6939
▁objects	-6940
▁categories	-6941
omed	-6942
▁adds	-6943
▁phones	-6944
▁Give	-6945
▁Northern	-6946
▁Ky	-6947
▁random	-6948
▁downtown	-6949
▁alumin	-6950
▁Despite	-6951
▁perspective	-6952
▁Connect	-6953
▁2015.	-6954
SE	-6955
▁Bang	-6956
uction	-6957
▁networks	-6958
▁candidate	-6959
bra	-6960
▁wealth	-6961
▁9.	-6962
▁Ref	-6963
▁raw	-6964
▁acid	-6965
▁crack	-6966
▁seriously	-6967
▁regulations	-6968
what	-6969
▁renov	-6970
48	-6971
▁DC	-6972
▁Conc	-6973
nic	-6974
▁weekly	-6975
▁wooden	-6976
gging	-6977
▁Drive	-6978
ulpt	-6979
▁absor	-6980
igned	-6981
▁spoke	-6982
▁Jon	-6983
▁Pop	-6984
cuit	-6985
aired	-6986
▁index	-6987
▁smell	-6988
real	-6989
▁Jackson	-6990
▁alongside	-6991
athe	-6992
▁estimated	-6993
▁resistance	-6994
▁param	-6995
▁u	-6996
uine	-6997
▁phase	-6998
▁overse	-6999
aze	-7000
▁shooting	-7001
/0	-7002
:5	-7003
ris	-7004
build	-7005
▁Modern	-7006
▁buyers	-7007
47	-7008
coin	-7009
▁Tele	-7010
▁forecast	-7011
▁attorney	-7012
ially	-7013
▁rose	-7014
▁colleagues	-7015
▁Base	-7016
▁cotton	-7017
▁Product	-7018
rome	-7019
▁Pra	-7020
▁Senior	-7021
▁succeed	-7022
▁HP	-7023
ogue	-7024
▁panels	-7025
▁letters	-7026
▁Po	-7027
▁protein	-7028
▁Son	-7029
▁por	-7030
▁pride	-7031
▁mur	-7032
▁Rose	-7033
▁unable	-7034
▁generate	-7035
▁pun	-7036
▁weap	-7037
▁formed	-7038
▁Bon	-7039
aki	-7040
una	-7041
▁lake	-7042
▁crime	-7043
▁suggested	-7044
zes	-7045
▁Stone	-7046
▁matches	-7047
▁examination	-7048
onto	-7049
▁desired	-7050
▁turning	-7051
▁reasonable	-7052
SP	-7053
▁LA	-7054
▁earthquake	-7055
iences	-7056
▁harder	-7057
▁Bul	-7058
▁Philipp	-7059
▁flooring	-7060
▁routine	-7061
▁ensuring	-7062
00.	-7063
▁pip	-7064
▁meets	-7065
▁column	-7066
▁Sale	-7067
equ	-7068
▁counsel	-7069
▁convenience	-7070
▁differences	-7071
olved	-7072
▁SA	-7073
▁id	-7074
arian	-7075
which	-7076
▁functional	-7077
▁equal	-7078
omy	-7079
hors	-7080
bridge	-7081
▁utility	-7082
▁Learning	-7083
MC	-7084
RI	-7085
lyn	-7086
▁sac	-7087
▁identity	-7088
zer	-7089
ented	-7090
▁mut	-7091
▁graduated	-7092
FC	-7093
▁%	-7094
▁Colorado	-7095
▁Ca	-7096
▁Being	-7097
▁somewhere	-7098
46	-7099
▁ir	-7100
▁Fac	-7101
▁Map	-7102
▁grab	-7103
▁Autom	-7104
▁forum	-7105
▁hoping	-7106
▁Gallery	-7107
▁mold	-7108
bury	-7109
▁venue	-7110
▁officers	-7111
▁component	-7112
▁reporting	-7113
▁description	-7114
▁Tax	-7115
▁floors	-7116
▁default	-7117
▁mile	-7118
▁unexpected	-7119
rich	-7120
▁Hen	-7121
celer	-7122
▁Photo	-7123
▁introduction	-7124
▁lin	-7125
▁male	-7126
▁Sales	-7127
▁freedom	-7128
▁stylish	-7129
▁vintage	-7130
▁displayed	-7131
amps	-7132
entle	-7133
▁bond	-7134
▁delay	-7135
lusion	-7136
▁hidden	-7137
▁figures	-7138
▁clicking	-7139
▁graphics	-7140
▁displ	-7141
▁prize	-7142
▁compens	-7143
▁skilled	-7144
▁platforms	-7145
▁bridge	-7146
▁faculty	-7147
▁delivering	-7148
icate	-7149
▁rating	-7150
▁discussed	-7151
,000.	-7152
▁diss	-7153
▁sole	-7154
▁proof	-7155
▁stated	-7156
▁2007	-7157
▁aims	-7158
▁Ha	-7159
▁Never	-7160
▁theory	-7161
II	-7162
▁Turn	-7163
▁Spain	-7164
▁Brazil	-7165
▁Members	-7166
▁capable	-7167
▁normally	-7168
▁recording	-7169
ns	-7170
▁Ohio	-7171
▁east	-7172
▁Pacific	-7173
▁risks	-7174
▁anymore	-7175
▁committee	-7176
▁Manufact	-7177
▁Rs	-7178
alled	-7179
ppers	-7180
▁boxes	-7181
▁careful	-7182
BI	-7183
▁stretch	-7184
▁nutrition	-7185
amber	-7186
▁loans	-7187
▁marks	-7188
RS	-7189
oty	-7190
▁Swed	-7191
▁Order	-7192
▁Steve	-7193
▁enterprise	-7194
▁certification	-7195
person	-7196
▁Obama	-7197
▁purchasing	-7198
LY	-7199
alle	-7200
mary	-7201
▁Ram	-7202
iances	-7203
▁communications	-7204
▁resort	-7205
▁sending	-7206
▁Station	-7207
aters	-7208
▁vast	-7209
▁Motor	-7210
▁array	-7211
▁defense	-7212
long	-7213
parent	-7214
▁crisis	-7215
friendly	-7216
▁strengthen	-7217
▁Brand	-7218
▁junior	-7219
▁Medicine	-7220
▁ham	-7221
▁pra	-7222
ogether	-7223
As	-7224
▁888	-7225
▁Ell	-7226
37	-7227
rit	-7228
▁trig	-7229
iana	-7230
lisher	-7231
▁bench	-7232
▁border	-7233
ographic	-7234
▁incident	-7235
▁circumstances	-7236
odge	-7237
▁Flow	-7238
▁tiny	-7239
▁designers	-7240
▁susp	-7241
▁workshops	-7242
▁2014.	-7243
▁merch	-7244
CD	-7245
cribe	-7246
▁tennis	-7247
▁streets	-7248
▁calendar	-7249
▁OK	-7250
▁Oak	-7251
pends	-7252
▁Save	-7253
▁draft	-7254
▁Andrew	-7255
▁aspect	-7256
▁Limited	-7257
▁Richard	-7258
▁Francisco	-7259
▁wallpaper	-7260
▁immediate	-7261
▁Coll	-7262
▁encouraged	-7263
CO	-7264
cm	-7265
▁Pict	-7266
▁bars	-7267
ampion	-7268
▁Space	-7269
▁Think	-7270
▁automatic	-7271
ools	-7272
▁compliance	-7273
▁duty	-7274
▁ads	-7275
▁vari	-7276
ensity	-7277
▁incorpor	-7278
▁Quest	-7279
▁recognize	-7280
▁wondering	-7281
▁SU	-7282
▁spin	-7283
▁forced	-7284
▁Samsung	-7285
▁judge	-7286
▁replaced	-7287
▁crucial	-7288
▁SS	-7289
▁birds	-7290
▁permanent	-7291
▁producing	-7292
iki	-7293
▁$5	-7294
▁Guide	-7295
▁enroll	-7296
▁strict	-7297
▁broadcast	-7298
▁submitted	-7299
df	-7300
▁$10	-7301
▁Run	-7302
▁elev	-7303
▁Kids	-7304
▁linked	-7305
▁suddenly	-7306
Ex	-7307
▁Cover	-7308
bi	-7309
▁stake	-7310
▁scheme	-7311
▁requests	-7312
ronics	-7313
▁relatively	-7314
lers	-7315
▁walked	-7316
▁eligible	-7317
▁upgrade	-7318
▁Foot	-7319
ev	-7320
ico	-7321
▁CR	-7322
▁legs	-7323
acular	-7324
▁trips	-7325
▁motion	-7326
haust	-7327
osa	-7328
ulf	-7329
you	-7330
▁Non	-7331
▁Pak	-7332
▁durable	-7333
lder	-7334
▁defined	-7335
▁passing	-7336
▁Perfect	-7337
▁combine	-7338
▁Moreover	-7339
▁centers	-7340
▁nuclear	-7341
sen	-7342
dney	-7343
▁1/2	-7344
▁rig	-7345
▁exposure	-7346
▁interactive	-7347
aya	-7348
uis	-7349
▁kil	-7350
▁Easy	-7351
▁refriger	-7352
▁yard	-7353
▁Put	-7354
▁Additionally	-7355
▁Sus	-7356
ership	-7357
▁Available	-7358
▁Hong	-7359
▁Johnson	-7360
▁agric	-7361
!!!!	-7362
▁2017,	-7363
▁consequ	-7364
▁promise	-7365
▁obtained	-7366
ione	-7367
▁USB	-7368
▁eggs	-7369
▁increases	-7370
▁mm	-7371
▁ord	-7372
▁Daniel	-7373
▁Georgia	-7374
▁photographs	-7375
ulum	-7376
luded	-7377
otive	-7378
▁king	-7379
iy	-7380
▁lad	-7381
anger	-7382
▁stim	-7383
erning	-7384
▁Estate	-7385
▁cooked	-7386
▁undert	-7387
MP	-7388
erts	-7389
oster	-7390
▁recre	-7391
▁flash	-7392
▁EU	-7393
▁Kong	-7394
▁sink	-7395
▁hurt	-7396
holders	-7397
▁brilliant	-7398
itable	-7399
▁errors	-7400
▁singer	-7401
▁FOR	-7402
▁talks	-7403
▁Studio	-7404
▁odd	-7405
▁impossible	-7406
▁coat	-7407
▁subjects	-7408
Fi	-7409
▁tack	-7410
▁belief	-7411
▁herself	-7412
▁samples	-7413
▁basketball	-7414
▁LLC	-7415
▁graphic	-7416
ml	-7417
urse	-7418
▁Still	-7419
▁shirt	-7420
respond	-7421
▁Natural	-7422
▁Fre	-7423
▁Stock	-7424
▁focuses	-7425
▁grammar	-7426
▁Previous	-7427
▁Agency	-7428
▁celebration	-7429
▁possibility	-7430
▁roles	-7431
ndant	-7432
▁flour	-7433
▁illness	-7434
▁reserved	-7435
▁computers	-7436
quar	-7437
▁anticip	-7438
▁guaranteed	-7439
RL	-7440
▁$3	-7441
▁champions	-7442
vas	-7443
▁blank	-7444
▁forever	-7445
▁witness	-7446
▁directed	-7447
▁accommodation	-7448
ati	-7449
awn	-7450
agon	-7451
▁Bible	-7452
▁Avenue	-7453
▁describe	-7454
▁Blo	-7455
▁suffering	-7456
▁Dog	-7457
▁ocean	-7458
▁gained	-7459
▁wireless	-7460
▁tro	-7461
▁scan	-7462
ugs	-7463
▁Lib	-7464
cycle	-7465
▁religious	-7466
▁lawyer	-7467
sec	-7468
adow	-7469
level	-7470
▁soccer	-7471
▁division	-7472
state	-7473
▁telling	-7474
ila	-7475
rick	-7476
undry	-7477
redit	-7478
▁trim	-7479
▁wake	-7480
▁magic	-7481
▁export	-7482
▁Williams	-7483
▁everywhere	-7484
▁Band	-7485
▁recommendations	-7486
GA	-7487
▁Queen	-7488
▁insight	-7489
▁singing	-7490
▁WH	-7491
▁tournament	-7492
49	-7493
rig	-7494
▁tracks	-7495
▁Cut	-7496
▁Fed	-7497
▁patio	-7498
▁SE	-7499
pack	-7500
▁brush	-7501
▁DI	-7502
▁tiss	-7503
▁Forest	-7504
▁precise	-7505
▁professor	-7506
▁minimal	-7507
phones	-7508
▁faces	-7509
▁Pen	-7510
▁banks	-7511
▁lowest	-7512
▁whilst	-7513
▁victory	-7514
▁Fact	-7515
▁believes	-7516
▁Ray	-7517
▁Safety	-7518
▁Solutions	-7519
▁everybody	-7520
▁experiment	-7521
31	-7522
▁inn	-7523
▁1000	-7524
▁checking	-7525
▁clar	-7526
▁spark	-7527
▁string	-7528
▁instant	-7529
▁covering	-7530
▁Collection	-7531
▁consistent	-7532
▁Far	-7533
▁versat	-7534
▁depends	-7535
▁Country	-7536
▁Express	-7537
inery	-7538
▁Mountain	-7539
▁believed	-7540
▁Ur	-7541
▁Prom	-7542
▁certificate	-7543
AY	-7544
iti	-7545
▁Based	-7546
▁riding	-7547
▁Consult	-7548
▁managers	-7549
erves	-7550
▁healing	-7551
▁2016,	-7552
▁millions	-7553
▁extract	-7554
ls	-7555
inn	-7556
phy	-7557
▁MO	-7558
agen	-7559
eding	-7560
▁saved	-7561
▁usage	-7562
▁scored	-7563
▁dropped	-7564
▁Clin	-7565
▁entirely	-7566
▁performances	-7567
pat	-7568
▁losing	-7569
▁chances	-7570
▁follows	-7571
born	-7572
▁suggestions	-7573
▁Sydney	-7574
och	-7575
▁complim	-7576
▁PH	-7577
greg	-7578
▁gate	-7579
▁accomplish	-7580
PM	-7581
▁Kh	-7582
▁Bit	-7583
▁exams	-7584
▁reception	-7585
Cl	-7586
▁fits	-7587
▁Below	-7588
▁recover	-7589
▁supplier	-7590
stery	-7591
▁hung	-7592
▁lift	-7593
▁Mix	-7594
▁Tick	-7595
▁behalf	-7596
▁correctly	-7597
heast	-7598
▁relief	-7599
▁anniversary	-7600
▁tape	-7601
▁Joe	-7602
▁scores	-7603
▁Following	-7604
inyl	-7605
▁Jones	-7606
▁neighb	-7607
▁coloring	-7608
▁priority	-7609
Le	-7610
▁cab	-7611
sters	-7612
▁guard	-7613
▁ly	-7614
▁Tot	-7615
▁conv	-7616
▁lists	-7617
▁orange	-7618
dri	-7619
▁shr	-7620
▁alarm	-7621
▁authorities	-7622
▁personality	-7623
▁kne	-7624
imize	-7625
▁baking	-7626
inch	-7627
▁Private	-7628
▁worst	-7629
▁Jac	-7630
▁bat	-7631
▁reply	-7632
▁warranty	-7633
oir	-7634
▁ol	-7635
page	-7636
adium	-7637
▁bicy	-7638
▁pizza	-7639
▁semin	-7640
asting	-7641
▁Besides	-7642
▁posting	-7643
▁Golden	-7644
▁organisation	-7645
sey	-7646
▁je	-7647
▁vul	-7648
chester	-7649
▁flights	-7650
ME	-7651
▁Nice	-7652
swe	-7653
▁Sher	-7654
▁stir	-7655
▁suite	-7656
▁Division	-7657
!"	-7658
ayer	-7659
gers	-7660
▁blocks	-7661
▁dealing	-7662
▁sophistic	-7663
VER	-7664
▁Pow	-7665
▁Army	-7666
▁Excell	-7667
▁toilet	-7668
▁Toronto	-7669
forcement	-7670
▁personally	-7671
zing	-7672
▁alumni	-7673
▁planet	-7674
▁reducing	-7675
▁naturally	-7676
▁controlled	-7677
▁Due	-7678
unicip	-7679
▁rural	-7680
▁Employ	-7681
▁invite	-7682
▁preferred	-7683
ubs	-7684
▁Ly	-7685
onder	-7686
▁gall	-7687
▁maintaining	-7688
▁sharp	-7689
▁cabinet	-7690
▁expenses	-7691
▁continuing	-7692
▁Line	-7693
lements	-7694
▁baseball	-7695
▁Currently	-7696
▁spiritual	-7697
alt	-7698
asm	-7699
axy	-7700
▁LO	-7701
▁bab	-7702
▁Plant	-7703
▁breast	-7704
▁channels	-7705
▁Bh	-7706
rooms	-7707
▁casual	-7708
▁experim	-7709
▁Rights	-7710
▁ram	-7711
ifies	-7712
▁amen	-7713
pret	-7714
▁Nick	-7715
gor	-7716
▁situated	-7717
▁packaging	-7718
foot	-7719
▁cock	-7720
▁inner	-7721
▁muscle	-7722
▁justice	-7723
▁Products	-7724
▁transaction	-7725
▁5,	-7726
▁tip	-7727
▁Radio	-7728
▁attending	-7729
▁flexibility	-7730
▁yoga	-7731
▁Theatre	-7732
eters	-7733
▁cats	-7734
anes	-7735
▁genuine	-7736
ken	-7737
▁bonus	-7738
riculum	-7739
▁painted	-7740
42	-7741
urious	-7742
▁doctors	-7743
▁talented	-7744
▁sensitive	-7745
▁Ap	-7746
▁FA	-7747
▁math	-7748
▁ensures	-7749
▁exhaust	-7750
▁commonly	-7751
▁mortgage	-7752
▁philosoph	-7753
▁integration	-7754
star	-7755
▁indoor	-7756
▁stations	-7757
▁happiness	-7758
▁juice	-7759
▁layout	-7760
'.	-7761
bel	-7762
bing	-7763
▁zone	-7764
▁inventory	-7765
nda	-7766
▁unus	-7767
▁spray	-7768
▁loving	-7769
▁approval	-7770
▁Description	-7771
nce	-7772
bourne	-7773
▁Roman	-7774
▁module	-7775
▁primarily	-7776
▁structures	-7777
▁recognition	-7778
▁Resp	-7779
▁jewelry	-7780
▁substant	-7781
▁expansion	-7782
mun	-7783
▁Electric	-7784
aylor	-7785
▁storm	-7786
▁initiative	-7787
isa	-7788
nders	-7789
▁spacious	-7790
**	-7791
▁ft	-7792
▁gentle	-7793
▁Interest	-7794
▁specialists	-7795
▁Kent	-7796
▁none	-7797
▁Chall	-7798
▁Hawai	-7799
▁folks	-7800
▁violence	-7801
▁generated	-7802
dr	-7803
ansas	-7804
▁slowly	-7805
▁cookies	-7806
▁guidelines	-7807
▁Sat	-7808
cknow	-7809
▁Working	-7810
oes	-7811
▁mac	-7812
▁seed	-7813
▁spots	-7814
▁relaxing	-7815
▁reduction	-7816
outer	-7817
▁stored	-7818
▁connections	-7819
%.	-7820
▁Isl	-7821
▁pic	-7822
ologist	-7823
▁Village	-7824
▁gran	-7825
▁heav	-7826
▁Front	-7827
▁crypt	-7828
▁Simply	-7829
▁constant	-7830
▁lets	-7831
▁council	-7832
▁retirement	-7833
▁hat	-7834
▁Field	-7835
▁pocket	-7836
▁Ministry	-7837
ih	-7838
▁Share	-7839
ulating	-7840
▁decade	-7841
▁sculpt	-7842
▁3-	-7843
▁bodies	-7844
Pro	-7845
▁Hou	-7846
▁attach	-7847
▁damaged	-7848
▁newspaper	-7849
Al	-7850
▁Wedding	-7851
▁closing	-7852
ounge	-7853
▁screw	-7854
jection	-7855
▁controls	-7856
▁sleeping	-7857
wich	-7858
▁applying	-7859
▁passionate	-7860
▁complicated	-7861
ludes	-7862
▁Cloud	-7863
▁unlike	-7864
▁concepts	-7865
gged	-7866
▁Process	-7867
▁resulting	-7868
▁Ess	-7869
▁Annual	-7870
▁Square	-7871
sole	-7872
burgh	-7873
inton	-7874
▁Event	-7875
▁broke	-7876
achelor	-7877
▁nights	-7878
uma	-7879
wer	-7880
▁aside	-7881
▁Personal	-7882
▁childhood	-7883
▁Administration	-7884
laim	-7885
ument	-7886
▁Creek	-7887
▁Prime	-7888
▁dollar	-7889
▁directory	-7890
oof	-7891
ror	-7892
▁irr	-7893
▁mob	-7894
▁trick	-7895
▁Mother	-7896
▁underst	-7897
▁hole	-7898
▁divid	-7899
▁Contin	-7900
▁massage	-7901
▁tutorial	-7902
ucky	-7903
▁Cry	-7904
▁mand	-7905
▁concerning	-7906
Don	-7907
▁roads	-7908
▁recruit	-7909
▁creativity	-7910
RC	-7911
▁shots	-7912
▁aircraft	-7913
▁diseases	-7914
uls	-7915
▁setup	-7916
▁consumption	-7917
▁Tech	-7918
▁involves	-7919
▁DJ	-7920
oker	-7921
▁sear	-7922
erving	-7923
▁split	-7924
▁interact	-7925
vironments	-7926
jo	-7927
-19	-7928
▁Aff	-7929
obody	-7930
▁diagram	-7931
▁Pakistan	-7932
▁bid	-7933
▁driven	-7934
▁stable	-7935
▁250	-7936
▁Viet	-7937
▁encoun	-7938
▁narrow	-7939
▁smartphone	-7940
85	-7941
rect	-7942
oween	-7943
▁2013.	-7944
▁Computer	-7945
▁Remember	-7946
▁finishing	-7947
quis	-7948
tics	-7949
▁Mah	-7950
▁Glass	-7951
▁mistake	-7952
▁terrible	-7953
ints	-7954
roke	-7955
▁smoke	-7956
▁yours	-7957
▁promotion	-7958
▁Ms	-7959
▁Ariz	-7960
▁opens	-7961
▁homework	-7962
▁operated	-7963
rage	-7964
ounce	-7965
▁hanging	-7966
ERS	-7967
books	-7968
▁shift	-7969
▁signal	-7970
▁requirement	-7971
ds	-7972
riers	-7973
▁Kingdom	-7974
▁falling	-7975
▁displays	-7976
eah	-7977
mers	-7978
▁Cru	-7979
▁Such	-7980
▁collections	-7981
▁Kat	-7982
▁league	-7983
▁injured	-7984
▁regions	-7985
▁mountains	-7986
▁improvements	-7987
▁rely	-7988
▁heads	-7989
▁remark	-7990
inois	-7991
▁anyway	-7992
▁engaged	-7993
▁Create	-7994
▁curtain	-7995
▁desktop	-7996
▁portion	-7997
▁fighting	-7998
▁empt	-7999
▁branch	-8000
▁correspond	-8001
ran	-8002
▁Dun	-8003
▁Ter	-8004
▁Bookmark	-8005
▁evaluation	-8006
erman	-8007
▁Insp	-8008
▁persons	-8009
▁ille	-8010
terest	-8011
▁strongly	-8012
▁packed	-8013
▁boyfriend	-8014
▁NO	-8015
▁Jenn	-8016
lessly	-8017
onym	-8018
▁Furn	-8019
▁chairs	-8020
▁trusted	-8021
▁Experience	-8022
▁Cabin	-8023
▁texture	-8024
▁association	-8025
FA	-8026
▁55	-8027
▁Leg	-8028
▁Fall	-8029
▁twenty	-8030
▁delivers	-8031
41	-8032
▁Ba	-8033
▁acknow	-8034
▁causing	-8035
▁Ice	-8036
▁golden	-8037
▁quotes	-8038
▁dancing	-8039
▁Everything	-8040
▁advantages	-8041
cking	-8042
igate	-8043
▁arms	-8044
▁Sound	-8045
▁taxes	-8046
▁legend	-8047
▁sq	-8048
▁vess	-8049
▁Winter	-8050
▁increasingly	-8051
▁(3	-8052
mate	-8053
ashed	-8054
▁Film	-8055
earing	-8056
▁entert	-8057
bow	-8058
▁Emer	-8059
▁facts	-8060
▁prove	-8061
▁critic	-8062
▁finger	-8063
▁Britain	-8064
▁compact	-8065
▁involving	-8066
▁dad	-8067
▁iPad	-8068
▁apparent	-8069
▁impressed	-8070
rat	-8071
▁BB	-8072
▁CN	-8073
▁SEO	-8074
▁Labor	-8075
ventional	-8076
▁explains	-8077
▁compatible	-8078
athy	-8079
ials	-8080
papers	-8081
▁stronger	-8082
▁personnel	-8083
▁inspection	-8084
▁universities	-8085
’,	-8086
▁75	-8087
aints	-8088
aping	-8089
▁Term	-8090
abetes	-8091
▁moves	-8092
▁piano	-8093
▁tracking	-8094
▁surprising	-8095
hop	-8096
▁Construction	-8097
If	-8098
▁soup	-8099
▁officially	-8100
▁organisations	-8101
hemat	-8102
▁Cand	-8103
▁Exam	-8104
▁recon	-8105
▁Bridge	-8106
▁Tru	-8107
inity	-8108
▁Stat	-8109
▁grate	-8110
▁chapter	-8111
▁rubber	-8112
▁CS	-8113
uster	-8114
▁slee	-8115
▁EN	-8116
▁god	-8117
▁Conf	-8118
▁»	-8119
▁DE	-8120
▁Door	-8121
▁pepper	-8122
▁reprodu	-8123
▁telephone	-8124
etch	-8125
▁Lock	-8126
▁criter	-8127
▁functionality	-8128
wa	-8129
▁cm	-8130
▁Golf	-8131
▁fabulous	-8132
▁lifetime	-8133
Con	-8134
▁2.0	-8135
orous	-8136
▁vert	-8137
▁Ra	-8138
▁Sem	-8139
▁Var	-8140
▁boring	-8141
▁printer	-8142
▁portable	-8143
▁literature	-8144
▁Corporation	-8145
arry	-8146
▁viewing	-8147
▁exploring	-8148
▁consideration	-8149
▁EX	-8150
abul	-8151
aug	-8152
ker	-8153
▁arg	-8154
▁Could	-8155
▁Spirit	-8156
▁marked	-8157
▁prison	-8158
cor	-8159
ffered	-8160
▁newest	-8161
▁authors	-8162
ko	-8163
▁na	-8164
teen	-8165
▁Ven	-8166
▁Broad	-8167
▁Niger	-8168
▁meters	-8169
▁Friends	-8170
▁exterior	-8171
▁signature	-8172
ATE	-8173
▁Mom	-8174
swered	-8175
▁Perhaps	-8176
▁founder	-8177
▁beds	-8178
▁Level	-8179
▁flying	-8180
▁Charles	-8181
▁ranging	-8182
▁proposal	-8183
▁environments	-8184
▁ear	-8185
stream	-8186
▁drawn	-8187
▁Yet	-8188
▁dual	-8189
▁borrow	-8190
▁destroy	-8191
tes	-8192
bits	-8193
fits	-8194
onic	-8195
▁Cool	-8196
▁tile	-8197
ailing	-8198
▁actor	-8199
▁Copyright	-8200
▁temporary	-8201
igious	-8202
▁stuck	-8203
▁tie	-8204
▁workplace	-8205
brid	-8206
▁Kar	-8207
vania	-8208
▁acceler	-8209
▁customized	-8210
▁Joseph	-8211
▁bes	-8212
ingly	-8213
▁coupon	-8214
▁excellence	-8215
▁networking	-8216
▁Ah	-8217
iverse	-8218
▁cater	-8219
▁vulner	-8220
▁overseas	-8221
▁participating	-8222
▁6,	-8223
▁pad	-8224
ATION	-8225
▁Daily	-8226
olesale	-8227
she	-8228
shire	-8229
▁Fast	-8230
▁Size	-8231
▁calm	-8232
▁sour	-8233
▁Brook	-8234
▁refres	-8235
▁Studies	-8236
▁Interior	-8237
aped	-8238
▁Sci	-8239
▁Hold	-8240
entine	-8241
▁shell	-8242
▁Capital	-8243
▁beneficial	-8244
▁principles	-8245
▁contractors	-8246
annel	-8247
▁beef	-8248
▁humans	-8249
▁relaxed	-8250
69	-8251
▁Own	-8252
▁amenities	-8253
▁transactions	-8254
▁solo	-8255
▁screens	-8256
▁matching	-8257
▁publication	-8258
▁fib	-8259
▁rust	-8260
▁chest	-8261
▁rainy	-8262
ication	-8263
▁Illinois	-8264
gypt	-8265
▁Cro	-8266
▁bold	-8267
▁forth	-8268
ributes	-8269
▁attitude	-8270
▁Condition	-8271
▁scientists	-8272
▁instruction	-8273
▁Rub	-8274
▁TOE	-8275
▁Located	-8276
▁Univers	-8277
Bl	-8278
adays	-8279
▁Stan	-8280
▁Dream	-8281
▁alive	-8282
▁Thus	-8283
▁clubs	-8284
▁visits	-8285
▁incredibly	-8286
anned	-8287
▁salary	-8288
asure	-8289
inent	-8290
▁finds	-8291
limited	-8292
▁Easter	-8293
▁fundra	-8294
itan	-8295
▁refund	-8296
▁Arizona	-8297
▁greatly	-8298
▁participation	-8299
uracy	-8300
ulator	-8301
▁filling	-8302
▁Brad	-8303
▁pets	-8304
ylvania	-8305
▁carrying	-8306
?"	-8307
▁38	-8308
pool	-8309
▁Ont	-8310
ington	-8311
▁2015,	-8312
▁Camer	-8313
▁penal	-8314
▁Standard	-8315
▁answered	-8316
▁stages	-8317
▁occurred	-8318
▁spectacular	-8319
▁7,	-8320
▁Las	-8321
▁boot	-8322
▁seam	-8323
▁charity	-8324
lose	-8325
▁Comb	-8326
▁Talk	-8327
▁assistant	-8328
▁uncom	-8329
▁resident	-8330
▁approaches	-8331
▁contribution	-8332
izz	-8333
itled	-8334
▁acts	-8335
▁coal	-8336
▁podcast	-8337
▁NEW	-8338
uling	-8339
▁pace	-8340
▁Large	-8341
▁indeed	-8342
▁cameras	-8343
▁responses	-8344
▁maintained	-8345
▁pill	-8346
▁seasons	-8347
▁washing	-8348
tery	-8349
itches	-8350
▁Treat	-8351
▁visible	-8352
▁completion	-8353
▁leaf	-8354
ression	-8355
▁gotten	-8356
▁safely	-8357
▁designing	-8358
▁representative	-8359
TV	-8360
▁TR	-8361
▁Stay	-8362
▁attacks	-8363
▁focusing	-8364
▁temperatures	-8365
Ar	-8366
ht	-8367
ERE	-8368
▁wanna	-8369
▁acquis	-8370
▁entering	-8371
▁exception	-8372
▁definition	-8373
▁permission	-8374
Be	-8375
▁Hun	-8376
▁pig	-8377
making	-8378
▁Irish	-8379
▁mirror	-8380
▁permal	-8381
▁arrival	-8382
▁Architect	-8383
43	-8384
▁CB	-8385
oned	-8386
▁asset	-8387
▁drain	-8388
▁yield	-8389
graduate	-8390
▁Industry	-8391
▁statistics	-8392
▁permalink	-8393
▁initiatives	-8394
km	-8395
▁Aw	-8396
▁NC	-8397
▁parks	-8398
▁spokes	-8399
▁Gro	-8400
▁scenes	-8401
▁listings	-8402
▁Diego	-8403
▁reader	-8404
AND	-8405
ilton	-8406
▁producer	-8407
▁sen	-8408
▁warn	-8409
▁Harry	-8410
▁Vietnam	-8411
▁convert	-8412
▁regardless	-8413
▁cul	-8414
bered	-8415
cular	-8416
mble	-8417
ults	-8418
▁Lat	-8419
arliam	-8420
▁resid	-8421
hot	-8422
▁Webs	-8423
▁tours	-8424
▁nursing	-8425
▁returning	-8426
▁phen	-8427
▁announcement	-8428
style	-8429
▁bare	-8430
▁tone	-8431
▁2019,	-8432
▁Catholic	-8433
▁efficiently	-8434
hou	-8435
▁10,	-8436
▁semi	-8437
▁homeown	-8438
▁containing	-8439
ped	-8440
adel	-8441
onda	-8442
▁percentage	-8443
▁specialized	-8444
charge	-8445
▁Partners	-8446
ho	-8447
▁33	-8448
rely	-8449
▁600	-8450
▁honey	-8451
▁seeds	-8452
▁acting	-8453
▁boards	-8454
▁engines	-8455
▁Tomorrow	-8456
▁framework	-8457
▁2-	-8458
char	-8459
fers	-8460
whel	-8461
▁Template	-8462
▁Meanwhile	-8463
ouses	-8464
▁Student	-8465
▁appointed	-8466
▁accounting	-8467
TE	-8468
rame	-8469
▁aged	-8470
▁gaming	-8471
▁promoting	-8472
bro	-8473
being	-8474
▁Innov	-8475
▁Houston	-8476
▁objective	-8477
AB	-8478
▁jaw	-8479
▁amounts	-8480
▁compete	-8481
▁advertise	-8482
▁cooperation	-8483
lined	-8484
▁bands	-8485
▁discounts	-8486
▁Mrs	-8487
▁Holid	-8488
▁pitch	-8489
▁browse	-8490
▁authority	-8491
20.	-8492
arliament	-8493
▁Complete	-8494
▁appliances	-8495
TP	-8496
▁aer	-8497
▁tor	-8498
ystem	-8499
▁Kenn	-8500
inator	-8501
▁Justice	-8502
▁Transport	-8503
obe	-8504
▁era	-8505
piece	-8506
▁wheels	-8507
▁hits	-8508
▁Vegas	-8509
▁personalized	-8510
▁Fab	-8511
sized	-8512
▁Mess	-8513
▁matt	-8514
▁toys	-8515
▁emails	-8516
▁engaging	-8517
▁sections	-8518
▁disappointed	-8519
▁Among	-8520
▁western	-8521
olis	-8522
▁belt	-8523
▁Delhi	-8524
▁addresses	-8525
umbing	-8526
▁Taylor	-8527
▁orient	-8528
▁residence	-8529
▁continuous	-8530
QL	-8531
ais	-8532
▁Uk	-8533
ador	-8534
▁Lux	-8535
ctive	-8536
▁Penns	-8537
▁demands	-8538
▁southern	-8539
▁04	-8540
ashes	-8541
▁alleged	-8542
▁insights	-8543
law	-8544
▁ending	-8545
▁impression	-8546
68	-8547
▁1:	-8548
▁TX	-8549
▁Pur	-8550
▁pul	-8551
▁abuse	-8552
▁accuracy	-8553
ela	-8554
▁Sav	-8555
▁Season	-8556
Sc	-8557
▁€	-8558
tail	-8559
▁Prior	-8560
▁donation	-8561
▁Requ	-8562
▁beans	-8563
ificial	-8564
winning	-8565
▁inspire	-8566
▁implemented	-8567
utter	-8568
▁perm	-8569
▁Egypt	-8570
▁rated	-8571
pending	-8572
▁Double	-8573
▁Bathroom	-8574
▁outcomes	-8575
▁Cit	-8576
▁cow	-8577
ellect	-8578
▁deeply	-8579
78	-8580
run	-8581
ensus	-8582
gorith	-8583
▁franch	-8584
▁wiring	-8585
▁breaking	-8586
▁Furthermore	-8587
▁DO	-8588
▁2006	-8589
▁Ocean	-8590
▁requested	-8591
ailand	-8592
▁Malays	-8593
▁vibrant	-8594
▁sophisticated	-8595
▁CP	-8596
▁Fox	-8597
▁arrested	-8598
wall	-8599
▁Nav	-8600
▁maps	-8601
▁dispos	-8602
▁explan	-8603
▁artwork	-8604
▁laundry	-8605
▁comparison	-8606
▁objectives	-8607
▁ultimately	-8608
inf	-8609
sis	-8610
icit	-8611
▁Dar	-8612
▁Iran	-8613
▁achie	-8614
▁giant	-8615
▁rapidly	-8616
child	-8617
▁complement	-8618
▁transmission	-8619
ali	-8620
▁8,	-8621
athan	-8622
letter	-8623
▁Eastern	-8624
▁criteria	-8625
▁beautifully	-8626
▁Rod	-8627
cific	-8628
▁Diam	-8629
ictionary	-8630
▁(200	-8631
▁Hills	-8632
▁plane	-8633
▁outfit	-8634
▁Ever	-8635
▁lang	-8636
▁vine	-8637
▁racing	-8638
▁shapes	-8639
▁referred	-8640
▁AB	-8641
▁NS	-8642
etary	-8643
▁trailer	-8644
▁intelligence	-8645
onut	-8646
▁Roll	-8647
▁edit	-8648
▁Short	-8649
▁cherry	-8650
▁catalog	-8651
▁politics	-8652
aza	-8653
▁iOS	-8654
▁fairly	-8655
usive	-8656
▁Mini	-8657
▁aluminum	-8658
▁Force	-8659
▁fault	-8660
▁farmers	-8661
▁winners	-8662
was	-8663
▁Ox	-8664
azed	-8665
fall	-8666
▁Rail	-8667
ropical	-8668
▁venture	-8669
▁Scotland	-8670
▁BM	-8671
aded	-8672
pton	-8673
ouver	-8674
▁Must	-8675
▁Within	-8676
▁pulled	-8677
▁representatives	-8678
ifer	-8679
▁Kind	-8680
▁aest	-8681
utical	-8682
▁globe	-8683
▁represented	-8684
An	-8685
▁CON	-8686
▁Has	-8687
▁Story	-8688
▁sunny	-8689
▁terror	-8690
▁worker	-8691
▁Property	-8692
For	-8693
aska	-8694
▁Blu	-8695
▁Ren	-8696
▁Tam	-8697
▁2012.	-8698
▁Homes	-8699
▁Paper	-8700
itution	-8701
▁raising	-8702
▁smoking	-8703
▁Magazine	-8704
▁northern	-8705
▁Bol	-8706
▁rum	-8707
▁moon	-8708
ivalent	-8709
▁themes	-8710
▁Explore	-8711
▁celebrated	-8712
▁12.	-8713
▁Policy	-8714
▁abilities	-8715
AA	-8716
▁gap	-8717
▁foreigners	-8718
▁Pennsylvania	-8719
▁Without	-8720
▁servers	-8721
▁heritage	-8722
ista	-8723
▁placeholder	-8724
▁steam	-8725
abulary	-8726
▁curriculum	-8727
My	-8728
▁MD	-8729
▁fruits	-8730
including	-8731
▁Victoria	-8732
▁contents	-8733
▁employers	-8734
aret	-8735
▁sectors	-8736
▁findings	-8737
▁instruments	-8738
ii	-8739
hour	-8740
▁Holy	-8741
▁plot	-8742
▁worn	-8743
▁assum	-8744
athered	-8745
▁Credit	-8746
▁titles	-8747
▁deposit	-8748
▁victims	-8749
▁LE	-8750
▁Model	-8751
▁surve	-8752
▁confused	-8753
▁120	-8754
▁sheets	-8755
▁Officer	-8756
▁cheaper	-8757
▁disaster	-8758
▁overview	-8759
uz	-8760
▁grateful	-8761
▁opposite	-8762
aha	-8763
▁Fred	-8764
▁buff	-8765
▁drum	-8766
▁Saint	-8767
▁Atlanta	-8768
▁romantic	-8769
▁struggle	-8770
▁understood	-8771
store	-8772
▁bills	-8773
▁horiz	-8774
▁waters	-8775
▁theater	-8776
▁characteristics	-8777
▁Harr	-8778
▁loud	-8779
ifting	-8780
▁pollut	-8781
▁hunting	-8782
▁directions	-8783
▁Hey	-8784
▁Chem	-8785
▁chef	-8786
▁Fresh	-8787
▁expanded	-8788
▁hesitate	-8789
ias	-8790
aron	-8791
▁nose	-8792
▁Again	-8793
▁Regard	-8794
▁lasting	-8795
▁Memorial	-8796
▁minister	-8797
▁apartments	-8798
▁supplement	-8799
▁HR	-8800
stract	-8801
▁faced	-8802
▁subsequ	-8803
▁(5	-8804
▁SD	-8805
▁twist	-8806
▁opinions	-8807
▁Halloween	-8808
▁highlights	-8809
▁revolution	-8810
▁hyp	-8811
▁2005	-8812
▁zero	-8813
giving	-8814
▁thousand	-8815
auc	-8816
cker	-8817
▁unw	-8818
▁ward	-8819
▁remem	-8820
▁heading	-8821
▁Equipment	-8822
elled	-8823
▁clip	-8824
▁enem	-8825
▁edited	-8826
▁specifications	-8827
▁ma	-8828
alse	-8829
▁COM	-8830
▁Ron	-8831
doors	-8832
▁lies	-8833
▁stom	-8834
ancouver	-8835
▁fulfill	-8836
▁glasses	-8837
▁unknown	-8838
▁ALL	-8839
▁Stra	-8840
▁empty	-8841
▁suggests	-8842
▁paintings	-8843
!)	-8844
elle	-8845
▁Ros	-8846
tical	-8847
▁lens	-8848
▁comprom	-8849
▁templates	-8850
GO	-8851
▁corn	-8852
▁ware	-8853
▁locally	-8854
▁indicate	-8855
▁precious	-8856
▁liability	-8857
▁manufactured	-8858
▁Ast	-8859
▁Dark	-8860
▁rack	-8861
▁unif	-8862
▁behavi	-8863
▁overlook	-8864
▁overwhel	-8865
▁compensation	-8866
▁Ask	-8867
allas	-8868
▁portra	-8869
▁athletes	-8870
iami	-8871
▁pix	-8872
▁toy	-8873
▁bacter	-8874
▁Thailand	-8875
What	-8876
▁Birth	-8877
▁Hollywood	-8878
▁37	-8879
inst	-8880
▁gardens	-8881
▁arranged	-8882
▁diversity	-8883
▁enjoyable	-8884
▁Lew	-8885
▁locks	-8886
▁Manchester	-8887
▁accommodate	-8888
▁Jr	-8889
step	-8890
There	-8891
▁Bell	-8892
▁expressed	-8893
400	-8894
cons	-8895
▁tum	-8896
▁wed	-8897
table	-8898
▁escape	-8899
▁insert	-8900
NS	-8901
▁Ryan	-8902
▁keys	-8903
▁Quick	-8904
▁loose	-8905
▁basically	-8906
▁bone	-8907
▁woke	-8908
▁Austin	-8909
▁dies	-8910
▁fifth	-8911
▁Classic	-8912
▁consulting	-8913
▁contributions	-8914
▁Ontario	-8915
▁unusual	-8916
▁interviews	-8917
▁translation	-8918
▁restore	-8919
ometown	-8920
▁colorful	-8921
▁Ak	-8922
▁peak	-8923
▁stamp	-8924
▁Change	-8925
▁passengers	-8926
regon	-8927
▁Tree	-8928
▁puzz	-8929
▁tons	-8930
▁writers	-8931
▁coaching	-8932
▁pleasant	-8933
aux	-8934
umer	-8935
▁Jam	-8936
▁salad	-8937
▁surrounded	-8938
oons	-8939
ifier	-8940
ellite	-8941
▁amongst	-8942
▁exposed	-8943
▁Columbia	-8944
▁Protection	-8945
incess	-8946
▁Civil	-8947
▁Cleaning	-8948
▁entrepreneurs	-8949
anted	-8950
▁Poly	-8951
▁isol	-8952
▁Sport	-8953
▁devot	-8954
▁loyal	-8955
▁rising	-8956
▁therap	-8957
▁Edition	-8958
ationally	-8959
▁ministry	-8960
TER	-8961
aver	-8962
uous	-8963
▁hospitals	-8964
▁CL	-8965
▁Nin	-8966
▁haz	-8967
▁Eric	-8968
▁Parent	-8969
▁shouldn	-8970
10.	-8971
▁Song	-8972
▁subm	-8973
▁hiring	-8974
▁enhanced	-8975
▁estimate	-8976
▁stability	-8977
▁lie	-8978
ffective	-8979
▁beaches	-8980
▁API	-8981
▁cam	-8982
▁lawn	-8983
nowned	-8984
▁divor	-8985
▁contained	-8986
▁engineers	-8987
vard	-8988
▁Number	-8989
▁drives	-8990
▁seller	-8991
▁resolve	-8992
▁Round	-8993
▁folder	-8994
′′	-8995
iac	-8996
ito	-8997
▁Lic	-8998
▁Type	-8999
▁wave	-9000
▁Section	-9001
▁delighted	-9002
▁conversion	-9003
▁asp	-9004
▁Case	-9005
▁Site	-9006
▁laser	-9007
▁cultures	-9008
▁Melbourne	-9009
▁legislation	-9010
HA	-9011
power	-9012
▁prime	-9013
▁anxiety	-9014
▁acquired	-9015
▁Commercial	-9016
▁mechanical	-9017
▁oral	-9018
▁convey	-9019
▁actively	-9020
▁2011.	-9021
▁intense	-9022
▁lawyers	-9023
▁ratings	-9024
▁struggling	-9025
▁Philippines	-9026
▁respectively	-9027
▁190	-9028
▁gender	-9029
▁intent	-9030
▁employer	-9031
▁Vancouver	-9032
▁secondary	-9033
▁alt	-9034
icted	-9035
aceutical	-9036
800	-9037
azy	-9038
Press	-9039
▁Pick	-9040
▁debate	-9041
▁wanting	-9042
▁Regional	-9043
▁interpret	-9044
▁documentation	-9045
angle	-9046
inson	-9047
estone	-9048
▁aggress	-9049
ervations	-9050
▁conflict	-9051
bie	-9052
▁34	-9053
▁Youth	-9054
▁muscles	-9055
▁tourism	-9056
▁assigned	-9057
▁demonstrate	-9058
▁rib	-9059
▁pipe	-9060
encing	-9061
screen	-9062
▁1,000	-9063
▁crash	-9064
▁artistic	-9065
boy	-9066
iary	-9067
▁Bad	-9068
epend	-9069
▁vice	-9070
▁Break	-9071
▁ranked	-9072
▁segment	-9073
▁donations	-9074
64	-9075
orks	-9076
▁Iron	-9077
▁Past	-9078
▁Analy	-9079
▁headed	-9080
▁Mu	-9081
▁Hay	-9082
athon	-9083
▁Carl	-9084
▁Lind	-9085
▁hasn	-9086
▁contracts	-9087
▁appreciated	-9088
-12	-9089
gments	-9090
▁Muslim	-9091
▁claimed	-9092
▁cooling	-9093
▁potentially	-9094
lee	-9095
wal	-9096
▁ink	-9097
▁thri	-9098
▁Guard	-9099
▁Finance	-9100
▁suffered	-9101
▁compliment	-9102
▁travelling	-9103
oa	-9104
lay	-9105
iche	-9106
▁Inv	-9107
icide	-9108
month	-9109
▁Vice	-9110
▁foam	-9111
▁advise	-9112
criptions	-9113
▁Secretary	-9114
▁Senate	-9115
▁developer	-9116
▁difficulty	-9117
▁conversations	-9118
lass	-9119
▁sin	-9120
ervice	-9121
▁Creative	-9122
▁Furniture	-9123
▁versatile	-9124
ushi	-9125
▁aimed	-9126
xx	-9127
ockey	-9128
▁Donald	-9129
VC	-9130
acon	-9131
▁Baby	-9132
eramic	-9133
▁Metal	-9134
▁elder	-9135
▁greet	-9136
▁hydro	-9137
▁sensor	-9138
▁rolling	-9139
gi	-9140
link	-9141
▁Ton	-9142
▁gon	-9143
eping	-9144
▁obst	-9145
▁acquire	-9146
▁campaigns	-9147
▁50%	-9148
▁oils	-9149
▁formula	-9150
▁Certified	-9151
rer	-9152
ogen	-9153
▁lip	-9154
▁bass	-9155
▁2014,	-9156
▁Linux	-9157
▁attractions	-9158
New	-9159
don	-9160
▁shed	-9161
orneys	-9162
rape	-9163
amental	-9164
▁Galaxy	-9165
▁casino	-9166
▁hometown	-9167
▁philosophy	-9168
▁operational	-9169
esy	-9170
rad	-9171
▁Nag	-9172
▁patch	-9173
▁Oregon	-9174
▁reveal	-9175
▁powered	-9176
▁vocabulary	-9177
war	-9178
▁IL	-9179
gent	-9180
isor	-9181
ucks	-9182
▁prest	-9183
anguage	-9184
▁Assistant	-9185
▁productivity	-9186
▁65	-9187
▁Tal	-9188
▁Unit	-9189
▁occurs	-9190
▁Contract	-9191
▁PL	-9192
Book	-9193
▁enjoys	-9194
▁trucks	-9195
OK	-9196
alo	-9197
▁Cele	-9198
▁Rain	-9199
olving	-9200
▁Psych	-9201
▁Customer	-9202
▁lightweight	-9203
arest	-9204
▁Self	-9205
▁align	-9206
▁Material	-9207
▁semester	-9208
▁arrangements	-9209
olly	-9210
▁11.	-9211
▁puts	-9212
▁container	-9213
▁grey	-9214
▁Kevin	-9215
▁operator	-9216
▁constructed	-9217
bell	-9218
asted	-9219
▁algorith	-9220
PL	-9221
▁hun	-9222
▁Grow	-9223
▁Brian	-9224
▁copyright	-9225
isure	-9226
▁Body	-9227
▁Name	-9228
uisine	-9229
▁reform	-9230
oen	-9231
▁Miami	-9232
▁emerging	-9233
▁URL	-9234
▁Barn	-9235
▁laid	-9236
▁mild	-9237
▁possess	-9238
▁reserve	-9239
▁Industrial	-9240
50.	-9241
oft	-9242
apes	-9243
heim	-9244
▁Rom	-9245
▁pilot	-9246
▁strive	-9247
DP	-9248
idal	-9249
pson	-9250
rets	-9251
abling	-9252
▁frustr	-9253
makers	-9254
▁Along	-9255
▁Orange	-9256
unicipal	-9257
▁currency	-9258
▁completing	-9259
▁experiencing	-9260
▁IC	-9261
▁pounds	-9262
▁Advanced	-9263
▁graduation	-9264
].	-9265
aud	-9266
uan	-9267
home	-9268
uten	-9269
▁Prim	-9270
iatric	-9271
▁mouse	-9272
▁ultra	-9273
▁Common	-9274
▁limits	-9275
▁priced	-9276
▁grinding	-9277
▁observed	-9278
▁exercises	-9279
▁Rog	-9280
▁spa	-9281
agers	-9282
▁slot	-9283
▁moder	-9284
▁iconic	-9285
▁depression	-9286
67	-9287
▁Jord	-9288
uition	-9289
▁reaching	-9290
▁overnight	-9291
rug	-9292
test	-9293
▁neut	-9294
▁elementary	-9295
itu	-9296
▁42	-9297
phia	-9298
vals	-9299
found	-9300
▁Sorry	-9301
▁overcome	-9302
onom	-9303
▁accord	-9304
▁cancell	-9305
▁sponsors	-9306
▁sne	-9307
oding	-9308
▁Blog	-9309
▁Sche	-9310
▁surge	-9311
▁Exchange	-9312
▁participated	-9313
airy	-9314
abeth	-9315
ridge	-9316
▁weird	-9317
▁Host	-9318
▁buyer	-9319
ruption	-9320
▁bicycle	-9321
▁Environmental	-9322
▁Tan	-9323
▁deeper	-9324
▁makeup	-9325
▁combines	-9326
▁Entertain	-9327
▁interaction	-9328
▁Gh	-9329
inos	-9330
otics	-9331
▁annoy	-9332
▁releases	-9333
▁lib	-9334
▁lob	-9335
itched	-9336
▁lease	-9337
▁Histor	-9338
▁fitted	-9339
▁spoken	-9340
▁vendors	-9341
▁equivalent	-9342
98	-9343
zed	-9344
▁suffer	-9345
▁tissue	-9346
etts	-9347
stein	-9348
▁Anth	-9349
▁fing	-9350
▁Posted	-9351
▁comedy	-9352
▁operates	-9353
▁produces	-9354
▁applicable	-9355
▁($	-9356
▁scar	-9357
▁sought	-9358
aire	-9359
bies	-9360
▁stack	-9361
▁pursue	-9362
▁Bedroom	-9363
▁emotions	-9364
dep	-9365
fish	-9366
▁sexual	-9367
▁configuration	-9368
▁Hur	-9369
▁Sep	-9370
▁cuts	-9371
▁falls	-9372
▁Seattle	-9373
ustration	-9374
▁somebody	-9375
▁investments	-9376
quet	-9377
▁Text	-9378
▁distributed	-9379
tw	-9380
And	-9381
unes	-9382
▁Vers	-9383
boards	-9384
▁spare	-9385
▁warning	-9386
▁practicing	-9387
▁font	-9388
▁nood	-9389
adelphia	-9390
▁musicians	-9391
▁cosm	-9392
▁composition	-9393
▁Arm	-9394
▁hearts	-9395
▁supplied	-9396
▁consistently	-9397
▁presentations	-9398
▁define	-9399
▁Website	-9400
▁SM	-9401
dale	-9402
▁fraud	-9403
▁tasty	-9404
▁circle	-9405
▁regret	-9406
▁downloaded	-9407
iders	-9408
▁seal	-9409
▁tube	-9410
▁Miller	-9411
▁surfaces	-9412
▁encounter	-9413
vi	-9414
▁hors	-9415
▁pupp	-9416
▁tact	-9417
▁plain	-9418
▁Indiana	-9419
▁somewhat	-9420
▁GM	-9421
▁Doc	-9422
▁Used	-9423
ermarket	-9424
lections	-9425
▁assembly	-9426
▁literally	-9427
TR	-9428
▁SO	-9429
oust	-9430
▁Jay	-9431
▁Cart	-9432
▁Bring	-9433
▁extent	-9434
SC	-9435
▁Pu	-9436
▁Trade	-9437
▁babies	-9438
▁festiv	-9439
ordinary	-9440
▁Dam	-9441
▁acres	-9442
▁comic	-9443
▁prints	-9444
▁describes	-9445
htt	-9446
▁copper	-9447
▁guides	-9448
▁technicians	-9449
oda	-9450
▁Ban	-9451
▁roots	-9452
▁subsid	-9453
▁assured	-9454
▁mattress	-9455
bound	-9456
eness	-9457
▁holes	-9458
▁Dallas	-9459
▁utilize	-9460
▁withdra	-9461
▁possibilities	-9462
world	-9463
▁concentr	-9464
▁gathered	-9465
▁inspiring	-9466
sts	-9467
oper	-9468
▁tourist	-9469
▁Planning	-9470
▁ordinary	-9471
nie	-9472
▁ME	-9473
▁adj	-9474
▁pup	-9475
isdom	-9476
▁dess	-9477
▁wins	-9478
▁stomach	-9479
igen	-9480
quiry	-9481
▁Making	-9482
▁closet	-9483
▁Teacher	-9484
produ	-9485
▁copies	-9486
▁outcome	-9487
ellectual	-9488
▁protocol	-9489
▁Resources	-9490
▁batteries	-9491
/2019	-9492
▁Prep	-9493
nesota	-9494
▁Early	-9495
▁Manual	-9496
▁sufficient	-9497
BM	-9498
cs	-9499
▁hip	-9500
▁Thai	-9501
▁hyper	-9502
▁Brother	-9503
▁shipped	-9504
▁gathering	-9505
▁connecting	-9506
ghan	-9507
itis	-9508
▁dism	-9509
▁hosts	-9510
▁girlfriend	-9511
▁representing	-9512
onze	-9513
▁ISO	-9514
▁lady	-9515
opping	-9516
▁knock	-9517
▁rehab	-9518
▁Action	-9519
▁Member	-9520
▁tradem	-9521
▁instantly	-9522
▁que	-9523
▁negoti	-9524
▁shoulder	-9525
▁targeted	-9526
▁vertical	-9527
oked	-9528
▁Him	-9529
▁dil	-9530
▁adap	-9531
▁cheer	-9532
▁luxurious	-9533
pa	-9534
IST	-9535
▁Books	-9536
▁dentist	-9537
▁financing	-9538
▁installing	-9539
▁Rand	-9540
▁exch	-9541
▁adopted	-9542
▁crushing	-9543
▁discussions	-9544
▁Eliz	-9545
▁spir	-9546
▁shade	-9547
▁wishes	-9548
uum	-9549
▁pour	-9550
▁Style	-9551
▁crown	-9552
▁Advent	-9553
▁Restaur	-9554
▁developments	-9555
?”	-9556
mo	-9557
tim	-9558
▁banking	-9559
▁generations	-9560
?!	-9561
▁64	-9562
▁brace	-9563
▁rarely	-9564
▁accompan	-9565
No	-9566
On	-9567
ori	-9568
▁fiber	-9569
▁generous	-9570
▁laboratory	-9571
▁Philadelphia	-9572
▁4-	-9573
▁Az	-9574
▁backup	-9575
▁fastest	-9576
▁gre	-9577
▁Appro	-9578
▁prayer	-9579
▁respective	-9580
▁Lady	-9581
▁angry	-9582
▁bunch	-9583
▁handy	-9584
▁diabetes	-9585
▁modified	-9586
▁frequency	-9587
tons	-9588
▁Nut	-9589
▁cig	-9590
▁ratio	-9591
▁tourists	-9592
▁Especially	-9593
▁EP	-9594
arts	-9595
▁Luc	-9596
▁conj	-9597
▁Forum	-9598
▁swing	-9599
▁illegal	-9600
▁knowledgeable	-9601
▁2004	-9602
covery	-9603
▁Latin	-9604
▁alter	-9605
nab	-9606
oln	-9607
▁Kir	-9608
▁Shel	-9609
▁sofa	-9610
▁harvest	-9611
▁Minnesota	-9612
▁regulatory	-9613
achus	-9614
shine	-9615
semble	-9616
▁bloss	-9617
▁circuit	-9618
▁repeated	-9619
▁fireplace	-9620
▁prevention	-9621
▁sed	-9622
▁Corn	-9623
▁lamp	-9624
inates	-9625
▁chips	-9626
▁Anyone	-9627
▁employed	-9628
▁expanding	-9629
ige	-9630
itzer	-9631
▁sees	-9632
▁Altern	-9633
▁jacket	-9634
▁empower	-9635
▁entitled	-9636
▁wildlife	-9637
▁Wy	-9638
hyth	-9639
that	-9640
ussion	-9641
▁Indones	-9642
▁Writing	-9643
▁survive	-9644
▁religion	-9645
▁admission	-9646
▁bol	-9647
▁Tenn	-9648
▁hide	-9649
▁lemon	-9650
▁robust	-9651
▁evaluate	-9652
cia	-9653
▁Lyn	-9654
▁cord	-9655
▁dough	-9656
▁layers	-9657
▁oldest	-9658
▁quit	-9659
mother	-9660
▁2010.	-9661
▁scope	-9662
▁remained	-9663
▁ru	-9664
▁Nic	-9665
▁Dead	-9666
▁grace	-9667
▁Wonder	-9668
▁brothers	-9669
EST	-9670
rovers	-9671
▁eager	-9672
▁equity	-9673
▁anytime	-9674
▁resistant	-9675
vo	-9676
▁UP	-9677
abil	-9678
agra	-9679
aine	-9680
▁Outdoor	-9681
▁Football	-9682
▁vinyl	-9683
▁wider	-9684
▁Berlin	-9685
▁granted	-9686
achusetts	-9687
▁chemicals	-9688
▁Performance	-9689
▁Bat	-9690
▁Snow	-9691
▁nail	-9692
rowave	-9693
▁Davis	-9694
▁blogs	-9695
▁Father	-9696
▁garlic	-9697
▁Certific	-9698
97	-9699
▁Chi	-9700
lects	-9701
▁#1	-9702
▁Money	-9703
▁Study	-9704
▁2:	-9705
ashing	-9706
▁Skype	-9707
▁Discover	-9708
▁cabinets	-9709
▁enforcement	-9710
▁reliability	-9711
/8	-9712
ui	-9713
▁snap	-9714
▁boots	-9715
▁Fellow	-9716
▁Schools	-9717
▁Springs	-9718
▁relative	-9719
▁tailored	-9720
▁Ta	-9721
▁Gas	-9722
',	-9723
▁12,	-9724
▁Speed	-9725
▁specified	-9726
oz	-9727
owa	-9728
enery	-9729
▁Magn	-9730
▁Send	-9731
▁outs	-9732
▁abund	-9733
▁walks	-9734
▁dealer	-9735
▁frames	-9736
▁titled	-9737
▁auction	-9738
▁conscious	-9739
▁restoration	-9740
udi	-9741
▁Moon	-9742
▁indu	-9743
▁Pharm	-9744
▁cinem	-9745
▁scratch	-9746
▁worship	-9747
KE	-9748
aga	-9749
▁11,	-9750
▁Dim	-9751
▁USD	-9752
▁Gall	-9753
▁bran	-9754
▁libr	-9755
▁narr	-9756
▁wines	-9757
▁lyrics	-9758
▁facilit	-9759
▁Together	-9760
▁phenomen	-9761
scale	-9762
De	-9763
cribed	-9764
iology	-9765
▁alike	-9766
▁Prince	-9767
▁Sciences	-9768
▁eliminate	-9769
▁memorable	-9770
▁Fortunately	-9771
iley	-9772
▁Pitt	-9773
▁Tony	-9774
▁Simple	-9775
▁broker	-9776
▁caring	-9777
▁checks	-9778
▁divided	-9779
▁decrease	-9780
▁Emb	-9781
▁yen	-9782
inals	-9783
▁Massachusetts	-9784
Ad	-9785
▁1.5	-9786
▁15,	-9787
▁Nether	-9788
▁editing	-9789
▁seating	-9790
▁Bru	-9791
▁decent	-9792
▁Fashion	-9793
▁wherever	-9794
▁motivation	-9795
py	-9796
ormal	-9797
ingham	-9798
▁2013,	-9799
▁Sarah	-9800
▁waves	-9801
▁Cancer	-9802
▁tablet	-9803
▁conventional	-9804
▁Rh	-9805
anny	-9806
mart	-9807
unci	-9808
▁volt	-9809
▁Authority	-9810
▁Championship	-9811
▁entertaining	-9812
words	-9813
▁wise	-9814
▁suits	-9815
▁Coffee	-9816
▁Server	-9817
▁signing	-9818
▁integrity	-9819
▁acquisition	-9820
▁BC	-9821
▁FR	-9822
bean	-9823
▁bub	-9824
▁Phone	-9825
▁Window	-9826
▁composed	-9827
▁screening	-9828
UST	-9829
bsp	-9830
▁Eag	-9831
▁Adam	-9832
▁cafe	-9833
▁tire	-9834
▁stops	-9835
▁theatre	-9836
ESS	-9837
IGH	-9838
rog	-9839
▁bored	-9840
▁Letter	-9841
▁accent	-9842
▁unlock	-9843
▁Reading	-9844
▁Malaysia	-9845
300	-9846
bage	-9847
▁loop	-9848
▁autumn	-9849
▁couples	-9850
▁moisture	-9851
▁scholarship	-9852
hr	-9853
▁Wars	-9854
▁Wilson	-9855
▁marine	-9856
▁surely	-9857
▁timely	-9858
▁Olympic	-9859
▁investing	-9860
▁lately	-9861
▁thinks	-9862
▁weapons	-9863
▁diagnosis	-9864
▁principal	-9865
card	-9866
▁bug	-9867
onsin	-9868
▁Five	-9869
▁Henry	-9870
▁compan	-9871
▁listened	-9872
▁intention	-9873
▁statements	-9874
▁Application	-9875
1)	-9876
rot	-9877
▁BBC	-9878
▁Cape	-9879
▁alert	-9880
▁Independ	-9881
▁deadline	-9882
▁renowned	-9883
▁Cab	-9884
▁dirt	-9885
▁fleet	-9886
urities	-9887
▁strike	-9888
▁passenger	-9889
asty	-9890
pany	-9891
Americ	-9892
▁fence	-9893
▁clinic	-9894
▁phrase	-9895
▁superb	-9896
isconsin	-9897
▁bottles	-9898
▁outdoors	-9899
VA	-9900
elve	-9901
▁rug	-9902
▁vib	-9903
▁Greg	-9904
▁react	-9905
▁curious	-9906
▁distingu	-9907
▁Challenge	-9908
▁capability	-9909
omin	-9910
vity	-9911
▁Sir	-9912
▁Dave	-9913
▁Pain	-9914
▁spell	-9915
itative	-9916
▁Stephen	-9917
▁peaceful	-9918
▁initially	-9919
▁fascinating	-9920
era	-9921
oli	-9922
edge	-9923
isms	-9924
alysis	-9925
▁union	-9926
▁Turkey	-9927
▁heavily	-9928
▁meaningful	-9929
▁BR	-9930
▁Dy	-9931
▁Et	-9932
▁gel	-9933
▁keen	-9934
assion	-9935
▁Greek	-9936
▁Always	-9937
▁Steven	-9938
▁breaks	-9939
rix	-9940
incoln	-9941
▁accred	-9942
▁cruise	-9943
▁fiction	-9944
▁kilomet	-9945
▁engineer	-9946
▁Valentine	-9947
▁Rot	-9948
▁weigh	-9949
▁discip	-9950
▁specialty	-9951
.;	-9952
FO	-9953
olk	-9954
▁(4	-9955
▁troubles	-9956
▁thoroughly	-9957
▁importantly	-9958
IE	-9959
ILL	-9960
uba	-9961
erals	-9962
▁trails	-9963
▁elected	-9964
▁Coloring	-9965
▁behaviour	-9966
▁automotive	-9967
Un	-9968
▁Eve	-9969
▁mole	-9970
employ	-9971
▁Michel	-9972
▁habits	-9973
▁Usually	-9974
▁removing	-9975
▁celebrating	-9976
▁institution	-9977
▁difficulties	-9978
DC	-9979
gree	-9980
▁Eth	-9981
▁Six	-9982
▁Month	-9983
▁maker	-9984
▁Hawaii	-9985
▁dresses	-9986
▁champion	-9987
oooo	-9988
upid	-9989
▁caf	-9990
▁poster	-9991
rif	-9992
▁47	-9993
mouth	-9994
▁Bern	-9995
▁qualify	-9996
▁basement	-9997
▁administrative	-9998
pace	-9999
▁Nurs	-10000
▁Albert	-10001
▁shaped	-10002
▁equally	-10003
▁Elizabeth	-10004
▁fundamental	-10005
iffe	-10006
▁Ped	-10007
dings	-10008
loved	-10009
▁chronic	-10010
▁obviously	-10011
▁ownership	-10012
FF	-10013
sea	-10014
----	-10015
gger	-10016
▁Dry	-10017
▁maj	-10018
▁Belg	-10019
▁Pear	-10020
anship	-10021
▁advised	-10022
week	-10023
▁360	-10024
uties	-10025
ultane	-10026
▁remod	-10027
▁operators	-10028
▁supermarket	-10029
▁9,	-10030
from	-10031
▁Mand	-10032
▁Title	-10033
▁edges	-10034
▁neither	-10035
▁reviewed	-10036
▁facilitate	-10037
▁sized	-10038
nut	-10039
mith	-10040
ping	-10041
▁18,	-10042
▁hobby	-10043
▁olive	-10044
▁Source	-10045
▁reaction	-10046
ican	-10047
mont	-10048
▁Dance	-10049
▁mineral	-10050
▁WordPress	-10051
▁conservation	-10052
▁da	-10053
▁Imp	-10054
▁Ult	-10055
▁Sony	-10056
▁nutri	-10057
▁plates	-10058
▁tender	-10059
SL	-10060
igs	-10061
rosc	-10062
▁10%	-10063
▁Kit	-10064
▁1980	-10065
▁Desk	-10066
fortable	-10067
▁captured	-10068
▁animation	-10069
▁remarkable	-10070
TO	-10071
▁III	-10072
rella	-10073
▁false	-10074
▁showc	-10075
▁subscription	-10076
▁jazz	-10077
▁2012,	-10078
▁balanced	-10079
▁30,	-10080
▁Anton	-10081
▁coconut	-10082
▁targets	-10083
▁departments	-10084
600	-10085
IVE	-10086
ika	-10087
▁Ira	-10088
▁Brew	-10089
omeday	-10090
▁alloc	-10091
▁tweet	-10092
▁nationwide	-10093
▁manufacture	-10094
lend	-10095
okes	-10096
▁Tel	-10097
▁Near	-10098
▁wrap	-10099
▁adequ	-10100
▁Wisconsin	-10101
▁franchise	-10102
▁slip	-10103
ressed	-10104
▁Toyota	-10105
▁privile	-10106
▁exclusively	-10107
rus	-10108
▁$100	-10109
▁Deep	-10110
▁prev	-10111
through	-10112
▁Several	-10113
▁enabled	-10114
▁showcase	-10115
▁hub	-10116
▁Shan	-10117
▁brew	-10118
▁funded	-10119
▁keyboard	-10120
▁Lam	-10121
▁Ten	-10122
▁hack	-10123
▁Premier	-10124
▁reduces	-10125
▁dramatic	-10126
▁prestigious	-10127
tle	-10128
▁Cars	-10129
▁mask	-10130
▁Impro	-10131
▁Netherlands	-10132
▁unfortunately	-10133
▁$1.	-10134
olitan	-10135
▁Compet	-10136
▁optimal	-10137
▁streaming	-10138
▁controvers	-10139
fly	-10140
ummy	-10141
▁Unt	-10142
▁Sant	-10143
▁twin	-10144
▁actors	-10145
▁assume	-10146
86	-10147
ICE	-10148
▁apple	-10149
▁shelf	-10150
▁barrel	-10151
▁detect	-10152
▁latter	-10153
▁teaches	-10154
▁zip	-10155
organ	-10156
▁Jordan	-10157
▁examine	-10158
▁practition	-10159
su	-10160
ureau	-10161
▁1990	-10162
minute	-10163
▁coupons	-10164
▁retired	-10165
▁publisher	-10166
▁39	-10167
▁Feel	-10168
uation	-10169
▁Email	-10170
▁toler	-10171
▁hopefully	-10172
▁conditioning	-10173
ACK	-10174
occ	-10175
▁CC	-10176
hell	-10177
inar	-10178
robe	-10179
inkle	-10180
opher	-10181
▁Barb	-10182
ceived	-10183
▁excite	-10184
▁hardly	-10185
▁occasions	-10186
▁purchases	-10187
▁popularity	-10188
bally	-10189
chain	-10190
▁minds	-10191
▁yards	-10192
▁diamond	-10193
▁bathrooms	-10194
▁Entertainment	-10195
best	-10196
▁Gift	-10197
▁Jewish	-10198
▁Single	-10199
▁Meeting	-10200
▁contacts	-10201
aa	-10202
All	-10203
▁Future	-10204
▁WW	-10205
icket	-10206
▁Side	-10207
▁bell	-10208
▁tong	-10209
ousing	-10210
▁slide	-10211
▁Tickets	-10212
▁periods	-10213
xid	-10214
▁gal	-10215
▁Date	-10216
urches	-10217
▁Craft	-10218
▁antib	-10219
▁fewer	-10220
▁fragr	-10221
▁Supreme	-10222
▁relating	-10223
IB	-10224
▁20,	-10225
▁Deb	-10226
▁Wow	-10227
▁quantity	-10228
▁retailers	-10229
▁protecting	-10230
high	-10231
▁NAS	-10232
▁Josh	-10233
▁aband	-10234
▁trains	-10235
▁premier	-10236
▁medication	-10237
▁internationally	-10238
▁Sym	-10239
▁ore	-10240
▁Kyoto	-10241
▁Laure	-10242
▁Things	-10243
▁nobody	-10244
▁Maryland	-10245
▁necessarily	-10246
akh	-10247
▁oz	-10248
enth	-10249
yles	-10250
▁Images	-10251
▁Portug	-10252
▁deserve	-10253
pg	-10254
▁okay	-10255
iously	-10256
overty	-10257
▁drank	-10258
▁repeat	-10259
▁decoration	-10260
cure	-10261
▁13,	-10262
▁Amb	-10263
▁Bird	-10264
▁Chap	-10265
▁Marine	-10266
▁raining	-10267
▁promised	-10268
▁adjustable	-10269
2)	-10270
▁Apart	-10271
▁coins	-10272
▁episodes	-10273
▁accidents	-10274
imp	-10275
▁Cos	-10276
▁umb	-10277
▁satisfy	-10278
▁weekends	-10279
amel	-10280
▁21,	-10281
▁Emm	-10282
▁cush	-10283
rapeut	-10284
▁mounted	-10285
▁Practice	-10286
Is	-10287
abad	-10288
lude	-10289
asket	-10290
▁Cash	-10291
azines	-10292
▁width	-10293
▁honored	-10294
▁vacc	-10295
▁Lewis	-10296
▁Update	-10297
▁speaks	-10298
▁processed	-10299
IO	-10300
▁Yoga	-10301
▁inse	-10302
▁Jason	-10303
▁humid	-10304
selling	-10305
▁Course	-10306
quarters	-10307
▁endless	-10308
▁granite	-10309
ova	-10310
atar	-10311
onia	-10312
▁Chen	-10313
▁dont	-10314
▁span	-10315
▁heaven	-10316
▁snacks	-10317
▁Holiday	-10318
RP	-10319
ITH	-10320
cery	-10321
tops	-10322
ilation	-10323
Se	-10324
kg	-10325
▁2.5	-10326
ijing	-10327
▁Major	-10328
▁Solar	-10329
▁Trail	-10330
▁legacy	-10331
▁Chapter	-10332
▁workout	-10333
▁emphasis	-10334
▁precision	-10335
/7	-10336
▁VA	-10337
▁lazy	-10338
▁Total	-10339
▁Cooper	-10340
▁damages	-10341
▁evolution	-10342
▁GA	-10343
▁IM	-10344
ifted	-10345
▁dedu	-10346
▁passes	-10347
▁poetry	-10348
▁Core	-10349
▁oppon	-10350
▁Remove	-10351
▁balcon	-10352
▁suspect	-10353
attan	-10354
▁Fine	-10355
▁fert	-10356
▁Block	-10357
▁exists	-10358
▁profiles	-10359
▁GP	-10360
▁Jean	-10361
▁bulk	-10362
prises	-10363
▁blind	-10364
▁Method	-10365
▁Unlike	-10366
▁Nothing	-10367
▁selecting	-10368
ju	-10369
olph	-10370
tech	-10371
▁magical	-10372
▁admitted	-10373
▁enabling	-10374
▁midnight	-10375
▁potatoes	-10376
▁sponsored	-10377
fire	-10378
oenix	-10379
▁Patrick	-10380
BO	-10381
UD	-10382
▁Ave	-10383
▁exit	-10384
▁flavors	-10385
▁reverse	-10386
ilty	-10387
otte	-10388
▁Exp	-10389
▁Tool	-10390
▁Browse	-10391
▁Nature	-10392
ologists	-10393
▁Fant	-10394
▁knife	-10395
ixtures	-10396
▁Queens	-10397
▁courts	-10398
▁Bitcoin	-10399
▁applies	-10400
▁colored	-10401
▁uploaded	-10402
▁addressed	-10403
bility	-10404
▁Final	-10405
section	-10406
▁combat	-10407
▁treats	-10408
ilitation	-10409
▁representation	-10410
ART	-10411
iller	-10412
▁cleaned	-10413
▁offerings	-10414
▁transformation	-10415
enger	-10416
angers	-10417
▁Castle	-10418
▁grounds	-10419
unciation	-10420
▁infection	-10421
▁dictionary	-10422
acc	-10423
walk	-10424
▁Wire	-10425
▁Categ	-10426
▁Sweet	-10427
▁embed	-10428
▁pione	-10429
▁Return	-10430
▁pregnant	-10431
▁Published	-10432
▁workforce	-10433
▁consultant	-10434
▁sustainability	-10435
▁Princ	-10436
▁straw	-10437
▁substantial	-10438
▁Deal	-10439
▁shoe	-10440
ao	-10441
uana	-10442
▁coin	-10443
▁Dutch	-10444
▁boasts	-10445
▁crafts	-10446
▁lecture	-10447
▁Age	-10448
aware	-10449
▁Jess	-10450
▁Much	-10451
▁Stop	-10452
▁caps	-10453
itects	-10454
▁Dining	-10455
▁resulted	-10456
▁simultane	-10457
▁parameters	-10458
pot	-10459
orms	-10460
▁Marc	-10461
▁Pers	-10462
▁refe	-10463
▁amend	-10464
▁fluid	-10465
▁paste	-10466
▁lounge	-10467
▁thesis	-10468
▁careers	-10469
▁crafted	-10470
▁Represent	-10471
aus	-10472
oom	-10473
pur	-10474
▁5-	-10475
▁fur	-10476
gener	-10477
▁Hair	-10478
▁knee	-10479
ieties	-10480
▁Dubai	-10481
▁Wales	-10482
onymous	-10483
79	-10484
via	-10485
▁frozen	-10486
▁credits	-10487
▁optional	-10488
rett	-10489
ighth	-10490
▁thro	-10491
▁cloth	-10492
▁stood	-10493
▁wisdom	-10494
▁Whatever	-10495
▁discovery	-10496
▁contributed	-10497
76	-10498
ctic	-10499
▁PhD	-10500
ropract	-10501
▁regards	-10502
▁favorites	-10503
▁graduates	-10504
▁specially	-10505
▁decorative	-10506
▁concentrate	-10507
CL	-10508
▁Vit	-10509
▁Heat	-10510
▁Iowa	-10511
hematics	-10512
▁gradually	-10513
▁references	-10514
▁$4	-10515
elfare	-10516
▁Resort	-10517
▁rescue	-10518
▁extraordinary	-10519
▁lol	-10520
acent	-10521
▁neuro	-10522
▁Shipping	-10523
▁terminal	-10524
▁Companies	-10525
▁electronics	-10526
89	-10527
Te	-10528
▁Luck	-10529
▁chip	-10530
▁deleg	-10531
▁divide	-10532
▁Overall	-10533
▁largely	-10534
iere	-10535
▁16,	-10536
▁Inn	-10537
▁batt	-10538
▁discipl	-10539
▁uniform	-10540
▁neighbors	-10541
▁2003	-10542
▁taxi	-10543
▁dirty	-10544
▁Bright	-10545
▁lovers	-10546
▁Congrat	-10547
▁Getting	-10548
▁merchand	-10549
▁artificial	-10550
LD	-10551
iro	-10552
▁Row	-10553
▁Budd	-10554
▁cust	-10555
▁mature	-10556
▁attorneys	-10557
▁Enterprise	-10558
▁conclusion	-10559
▁Raj	-10560
owned	-10561
▁dipl	-10562
▁inex	-10563
etooth	-10564
▁Staff	-10565
▁Lincoln	-10566
▁fitting	-10567
▁RO	-10568
▁ax	-10569
▁1970	-10570
▁File	-10571
▁assemb	-10572
▁existence	-10573
itty	-10574
▁pics	-10575
▁rend	-10576
▁ladies	-10577
▁venues	-10578
▁picking	-10579
▁competitors	-10580
essed	-10581
▁Vent	-10582
▁Doctor	-10583
▁tastes	-10584
▁Attorney	-10585
▁charming	-10586
▁relation	-10587
▁hol	-10588
▁ster	-10589
▁Audio	-10590
▁Clear	-10591
▁Amazing	-10592
▁elections	-10593
▁producers	-10594
▁publications	-10595
sex	-10596
▁GO	-10597
town	-10598
urers	-10599
▁angle	-10600
▁tires	-10601
▁tower	-10602
▁Oxford	-10603
▁plugin	-10604
▁bacteria	-10605
▁translate	-10606
▁refrigerator	-10607
TML	-10608
atal	-10609
avor	-10610
▁Les	-10611
▁McG	-10612
▁Kansas	-10613
▁Sweden	-10614
▁routes	-10615
▁Introdu	-10616
▁Includes	-10617
▁Technical	-10618
▁Communications	-10619
lan	-10620
▁1-	-10621
▁Coc	-10622
▁Particip	-10623
▁achieving	-10624
otes	-10625
▁memor	-10626
▁makers	-10627
▁varied	-10628
▁Beijing	-10629
▁somehow	-10630
▁directors	-10631
▁arrangement	-10632
▁consequences	-10633
▁14,	-10634
▁Hind	-10635
omatic	-10636
▁Kelly	-10637
▁Third	-10638
▁login	-10639
▁recru	-10640
chestra	-10641
▁Summit	-10642
▁murder	-10643
▁stupid	-10644
▁pointed	-10645
▁variable	-10646
▁imagination	-10647
uru	-10648
▁Py	-10649
▁hungry	-10650
▁Mission	-10651
▁burning	-10652
▁crystal	-10653
▁publishing	-10654
▁intellectual	-10655
dam	-10656
ghai	-10657
ocur	-10658
▁Gree	-10659
▁Iraq	-10660
▁Ross	-10661
▁shades	-10662
▁Records	-10663
▁organize	-10664
HD	-10665
ols	-10666
▁Bab	-10667
▁Moo	-10668
▁fried	-10669
▁oblig	-10670
▁vocal	-10671
osystem	-10672
▁divorce	-10673
▁invitation	-10674
▁expressions	-10675
▁Hu	-10676
▁19,	-10677
▁Hal	-10678
▁begun	-10679
▁horses	-10680
▁scared	-10681
▁Designed	-10682
▁branches	-10683
▁machinery	-10684
tic	-10685
uki	-10686
grade	-10687
▁Honda	-10688
▁Pages	-10689
▁cyber	-10690
▁convin	-10691
▁prizes	-10692
▁prohib	-10693
▁buttons	-10694
▁courage	-10695
▁shortly	-10696
▁annually	-10697
▁navigate	-10698
▁documentary	-10699
▁ED	-10700
▁Hig	-10701
▁bio	-10702
overs	-10703
▁Sure	-10704
▁rede	-10705
laimed	-10706
▁Agric	-10707
▁Movie	-10708
▁Veter	-10709
theless	-10710
▁satellite	-10711
cat	-10712
cho	-10713
▁Han	-10714
▁Hom	-10715
▁donated	-10716
▁frequent	-10717
▁marketplace	-10718
emed	-10719
▁Nap	-10720
▁army	-10721
▁Girls	-10722
▁reloc	-10723
▁holder	-10724
▁diameter	-10725
▁automated	-10726
▁uncertain	-10727
▁programmes	-10728
▁prescription	-10729
iva	-10730
▁25,	-10731
▁Bry	-10732
▁Jane	-10733
ottage	-10734
▁carrier	-10735
name	-10736
▁Fan	-10737
▁chap	-10738
▁Screen	-10739
▁virtually	-10740
gov	-10741
▁forgotten	-10742
▁indicated	-10743
▁stakeholders	-10744
▁architectural	-10745
aft	-10746
ims	-10747
erty	-10748
▁Ele	-10749
▁bund	-10750
▁balls	-10751
▁rings	-10752
▁Junior	-10753
▁contractor	-10754
▁achievement	-10755
LO	-10756
App	-10757
▁Buff	-10758
▁myster	-10759
▁actress	-10760
▁cuisine	-10761
▁Register	-10762
▁facebook	-10763
▁magnetic	-10764
72	-10765
▁SW	-10766
▁pit	-10767
▁hired	-10768
▁Throughout	-10769
▁mixing	-10770
▁Matthew	-10771
▁emotion	-10772
▁funeral	-10773
Our	-10774
drop	-10775
comed	-10776
▁Cell	-10777
▁accum	-10778
▁canvas	-10779
▁writes	-10780
▁Present	-10781
▁Economic	-10782
▁Starting	-10783
ibl	-10784
▁Li	-10785
artz	-10786
rylic	-10787
▁Less	-10788
▁encl	-10789
▁uncle	-10790
ificent	-10791
▁tackle	-10792
▁modules	-10793
▁Bachelor	-10794
▁Chairman	-10795
▁Heritage	-10796
▁smoothly	-10797
▁emissions	-10798
▁estimates	-10799
▁printable	-10800
▁accordance	-10801
▁attendance	-10802
▁settlement	-10803
▁encouraging	-10804
▁GPS	-10805
▁Gran	-10806
▁asleep	-10807
▁Chamber	-10808
▁disorders	-10809
▁magazines	-10810
▁mechanism	-10811
▁pregnancy	-10812
Hz	-10813
INE	-10814
whe	-10815
▁NJ	-10816
imon	-10817
kind	-10818
pled	-10819
▁2020	-10820
▁Flash	-10821
▁minim	-10822
▁pasta	-10823
▁Birthday	-10824
▁Republican	-10825
▁EC	-10826
▁DNA	-10827
▁Fig	-10828
▁Pil	-10829
▁Excel	-10830
▁Language	-10831
▁Portland	-10832
▁realistic	-10833
▁welcoming	-10834
ANT	-10835
sle	-10836
▁350	-10837
▁floral	-10838
▁profits	-10839
▁investigate	-10840
Man	-10841
nals	-10842
▁180	-10843
essee	-10844
▁Safe	-10845
▁Tower	-10846
▁Inside	-10847
▁allerg	-10848
children	-10849
▁bearing	-10850
pha	-10851
▁Gun	-10852
▁Rick	-10853
▁evil	-10854
▁Simon	-10855
▁waist	-10856
▁Scient	-10857
▁letting	-10858
▁ordering	-10859
▁motivated	-10860
▁20%	-10861
ijuana	-10862
▁Osaka	-10863
▁imper	-10864
▁WA	-10865
▁Virt	-10866
▁flaw	-10867
▁Coach	-10868
▁struck	-10869
outheast	-10870
▁conserv	-10871
▁summary	-10872
▁classical	-10873
▁measurement	-10874
erk	-10875
▁ow	-10876
▁Rap	-10877
▁pdf	-10878
▁Roof	-10879
▁tune	-10880
▁reject	-10881
▁championship	-10882
▁Congratulations	-10883
How	-10884
▁WE	-10885
pres	-10886
nabis	-10887
▁Floor	-10888
commerce	-10889
▁Islands	-10890
▁secured	-10891
▁climbing	-10892
▁province	-10893
▁excitement	-10894
▁accompanied	-10895
▁10-	-10896
▁Dor	-10897
▁Pad	-10898
▁Som	-10899
▁HERE	-10900
▁tort	-10901
▁candy	-10902
▁Diamond	-10903
▁Alliance	-10904
▁assignment	-10905
▁instructor	-10906
▁structural	-10907
▁Grant	-10908
▁brick	-10909
▁duties	-10910
▁labels	-10911
▁charging	-10912
▁substance	-10913
▁concentration	-10914
▁oh	-10915
ouri	-10916
▁22,	-10917
▁Days	-10918
▁TOEIC	-10919
▁Events	-10920
▁Channel	-10921
▁anybody	-10922
▁delicate	-10923
▁tropical	-10924
▁Excellent	-10925
▁(6	-10926
stop	-10927
▁Extra	-10928
▁drove	-10929
▁Thanksgiving	-10930
▁NFL	-10931
▁Burn	-10932
▁bite	-10933
▁promo	-10934
▁royal	-10935
ditional	-10936
▁Premium	-10937
pay	-10938
▁CM	-10939
beat	-10940
▁fed	-10941
▁bomb	-10942
▁stocks	-10943
▁subtle	-10944
▁Phoenix	-10945
▁nearest	-10946
▁recruitment	-10947
cul	-10948
▁Beh	-10949
hythm	-10950
ugged	-10951
market	-10952
▁reven	-10953
▁tiles	-10954
▁retain	-10955
▁sleepy	-10956
▁cleaner	-10957
▁coaches	-10958
▁measured	-10959
▁Additional	-10960
▁apparently	-10961
▁newsletter	-10962
▁Certificate	-10963
shore	-10964
▁virus	-10965
▁vacuum	-10966
▁leisure	-10967
▁pronunciation	-10968
Tra	-10969
▁GR	-10970
▁Gre	-10971
▁Bush	-10972
▁visa	-10973
▁Chrome	-10974
▁Region	-10975
▁roller	-10976
▁effectiveness	-10977
lah	-10978
▁AW	-10979
▁Om	-10980
ahoo	-10981
▁Lot	-10982
nered	-10983
▁nick	-10984
▁drops	-10985
▁races	-10986
▁Dental	-10987
▁heated	-10988
▁losses	-10989
▁Element	-10990
▁tomatoes	-10991
▁applicants	-10992
▁Installation	-10993
pen	-10994
disc	-10995
▁Beat	-10996
▁hill	-10997
▁snack	-10998
▁cultiv	-10999
▁Reserve	-11000
▁pollution	-11001
▁processor	-11002
▁cous	-11003
▁permit	-11004
▁Scottish	-11005
▁DIY	-11006
▁Wine	-11007
▁pants	-11008
▁portal	-11009
▁powers	-11010
1-	-11011
olen	-11012
plant	-11013
▁True	-11014
▁Storage	-11015
▁Original	-11016
▁finishes	-11017
▁preserve	-11018
▁continuously	-11019
▁(8	-11020
▁Sac	-11021
▁mit	-11022
▁Corp	-11023
▁Grey	-11024
▁trib	-11025
▁google	-11026
▁plumbing	-11027
▁audiences	-11028
▁unlimited	-11029
CP	-11030
▁HA	-11031
acht	-11032
maker	-11033
▁User	-11034
▁sits	-11035
▁jeans	-11036
▁shine	-11037
▁recall	-11038
▁movements	-11039
▁homeowners	-11040
▁confidential	-11041
They	-11042
bled	-11043
▁Bag	-11044
▁RSS	-11045
▁discl	-11046
▁Highway	-11047
▁assault	-11048
▁wellness	-11049
▁associate	-11050
▁cyl	-11051
▁Legal	-11052
▁Better	-11053
▁incent	-11054
▁Clinton	-11055
▁NH	-11056
▁Fle	-11057
▁fake	-11058
▁Metro	-11059
▁Remov	-11060
▁loads	-11061
▁Import	-11062
▁delete	-11063
▁hybrid	-11064
▁Nations	-11065
▁welcomed	-11066
▁explanation	-11067
▁99	-11068
afood	-11069
antry	-11070
▁colon	-11071
▁Results	-11072
▁occasionally	-11073
▁Got	-11074
adise	-11075
raine	-11076
▁Fish	-11077
▁Yellow	-11078
▁seminar	-11079
▁singles	-11080
▁provision	-11081
obs	-11082
▁44	-11083
▁Pink	-11084
▁2011,	-11085
▁Later	-11086
▁Saudi	-11087
▁fever	-11088
▁accused	-11089
Me	-11090
ECT	-11091
▁ta	-11092
▁jet	-11093
arten	-11094
▁Move	-11095
▁bout	-11096
▁dash	-11097
▁nest	-11098
perform	-11099
▁Mining	-11100
aughters	-11101
▁japan	-11102
▁Temple	-11103
▁backed	-11104
▁adoption	-11105
▁collecting	-11106
▁remembered	-11107
▁governments	-11108
GM	-11109
▁13.	-11110
▁Wind	-11111
▁Nation	-11112
▁sevent	-11113
▁suited	-11114
▁tremend	-11115
▁responded	-11116
phic	-11117
▁Gate	-11118
▁dump	-11119
▁Carib	-11120
▁Liter	-11121
▁scrap	-11122
▁stays	-11123
▁decline	-11124
▁reflects	-11125
▁indicates	-11126
▁Restaurant	-11127
-15	-11128
isp	-11129
▁OP	-11130
▁Ath	-11131
▁soy	-11132
▁fare	-11133
▁folk	-11134
▁pine	-11135
▁hiking	-11136
▁trials	-11137
▁addiction	-11138
▁surprises	-11139
racy	-11140
▁Pool	-11141
▁Ident	-11142
▁Almost	-11143
▁foster	-11144
▁argument	-11145
▁Tennessee	-11146
▁vegetable	-11147
3)	-11148
UI	-11149
iev	-11150
vet	-11151
olar	-11152
open	-11153
▁Pros	-11154
▁admit	-11155
▁brass	-11156
▁temple	-11157
▁recycling	-11158
▁fundraising	-11159
cled	-11160
▁17,	-11161
▁Occ	-11162
▁dup	-11163
▁Mort	-11164
▁Rome	-11165
▁booth	-11166
▁refuge	-11167
▁valued	-11168
▁ceramic	-11169
▁dimensions	-11170
▁incorporate	-11171
▁collaborative	-11172
87	-11173
▁Fix	-11174
▁Mayor	-11175
▁exploration	-11176
aura	-11177
udes	-11178
▁Nik	-11179
▁outer	-11180
▁Success	-11181
▁killing	-11182
▁universe	-11183
▁friendship	-11184
▁destinations	-11185
ppy	-11186
▁Gi	-11187
gate	-11188
unct	-11189
tends	-11190
▁glow	-11191
seeing	-11192
▁Purch	-11193
▁voted	-11194
ishment	-11195
▁danger	-11196
▁prosecut	-11197
▁ic	-11198
▁Sri	-11199
▁Doll	-11200
▁bull	-11201
▁tatt	-11202
▁tops	-11203
▁grades	-11204
▁grants	-11205
▁exhibit	-11206
▁fantasy	-11207
▁handled	-11208
▁preview	-11209
▁Cambridge	-11210
udd	-11211
▁49	-11212
▁CV	-11213
▁Wat	-11214
father	-11215
▁2010,	-11216
▁towns	-11217
▁Animal	-11218
▁Awesome	-11219
▁Foreign	-11220
▁airline	-11221
▁contacted	-11222
afe	-11223
rec	-11224
Point	-11225
▁Bene	-11226
quisite	-11227
▁Anthony	-11228
▁beloved	-11229
▁Governor	-11230
▁globally	-11231
▁prominent	-11232
▁containers	-11233
▁14.	-11234
▁bay	-11235
ostic	-11236
▁gray	-11237
▁leak	-11238
▁Affairs	-11239
▁Assembly	-11240
▁designated	-11241
▁productive	-11242
▁BMW	-11243
asant	-11244
▁rect	-11245
veland	-11246
atching	-11247
SM	-11248
stra	-11249
▁Jun	-11250
guard	-11251
▁Peace	-11252
▁affects	-11253
▁confront	-11254
▁expecting	-11255
▁festivals	-11256
▁dedication	-11257
erse	-11258
▁Mall	-11259
▁hell	-11260
▁soap	-11261
working	-11262
▁Dragon	-11263
▁carries	-11264
▁fabrics	-11265
▁poverty	-11266
▁suspend	-11267
itzerland	-11268
▁striking	-11269
▁promotional	-11270
▁implementing	-11271
▁restrictions	-11272
UE	-11273
roit	-11274
▁jam	-11275
▁Anna	-11276
▁demo	-11277
▁Apply	-11278
▁booked	-11279
▁Details	-11280
▁shelter	-11281
ALL	-11282
▁AI	-11283
▁urg	-11284
.....	-11285
▁stem	-11286
season	-11287
▁upset	-11288
▁inspect	-11289
▁Speaking	-11290
▁immigration	-11291
▁entrepreneur	-11292
EX	-11293
cal	-11294
olds	-11295
▁grat	-11296
▁lean	-11297
▁Maria	-11298
▁Until	-11299
▁onion	-11300
▁tongue	-11301
▁survival	-11302
uv	-11303
▁2002	-11304
▁Plans	-11305
▁receip	-11306
▁stones	-11307
▁refresh	-11308
▁attempts	-11309
▁backyard	-11310
MI	-11311
yes	-11312
▁Opp	-11313
▁mas	-11314
quiries	-11315
▁Casino	-11316
▁gently	-11317
▁scenery	-11318
▁churches	-11319
▁jur	-11320
▁Lane	-11321
▁cakes	-11322
▁comply	-11323
▁roughly	-11324
▁shelves	-11325
▁separately	-11326
▁Eye	-11327
olves	-11328
▁Anne	-11329
▁Nort	-11330
▁gamb	-11331
▁Designs	-11332
▁threats	-11333
▁declared	-11334
GR	-11335
▁28,	-11336
▁Tro	-11337
▁grid	-11338
▁hood	-11339
▁lone	-11340
▁corpor	-11341
▁handmade	-11342
▁transparent	-11343
One	-11344
▁Chel	-11345
▁orth	-11346
▁guided	-11347
▁refreshing	-11348
▁conferences	-11349
▁Spot	-11350
▁diff	-11351
Donald	-11352
berries	-11353
▁individually	-11354
▁3:	-11355
▁Pa	-11356
▁23,	-11357
▁mad	-11358
▁Upon	-11359
lahoma	-11360
▁essays	-11361
▁proved	-11362
▁seniors	-11363
▁adorable	-11364
▁authorized	-11365
▁Architecture	-11366
▁undergraduate	-11367
▁Gary	-11368
▁Mind	-11369
▁Begin	-11370
▁Morgan	-11371
▁costly	-11372
▁analyze	-11373
▁wrapped	-11374
▁classmates	-11375
▁opposition	-11376
▁’	-11377
abs	-11378
amboo	-11379
▁Hart	-11380
▁crop	-11381
▁gene	-11382
▁sorts	-11383
mediate	-11384
▁referr	-11385
▁voices	-11386
▁harmful	-11387
▁durability	-11388
▁specializes	-11389
▁194	-11390
▁Tell	-11391
▁anch	-11392
▁disk	-11393
▁Marsh	-11394
▁Ready	-11395
▁Urban	-11396
▁ships	-11397
▁explos	-11398
EA	-11399
▁72	-11400
stock	-11401
▁Ring	-11402
celona	-11403
umbers	-11404
▁fired	-11405
▁donate	-11406
▁Replace	-11407
▁proport	-11408
▁decorating	-11409
▁supporters	-11410
hu	-11411
-18	-11412
▁Vin	-11413
▁bin	-11414
▁lam	-11415
pling	-11416
▁Sample	-11417
▁margin	-11418
▁vendor	-11419
▁filters	-11420
▁earnings	-11421
▁formation	-11422
▁qualities	-11423
ez	-11424
▁15.	-11425
▁asks	-11426
▁tied	-11427
ustain	-11428
▁Battle	-11429
▁Editor	-11430
▁shocked	-11431
▁Reserved	-11432
▁colleges	-11433
%,	-11434
62	-11435
cr	-11436
acco	-11437
after	-11438
▁Multi	-11439
▁camping	-11440
▁pockets	-11441
▁roofing	-11442
▁dialogue	-11443
▁1)	-11444
▁Sad	-11445
▁Too	-11446
▁cups	-11447
▁wore	-11448
▁cooler	-11449
▁fridge	-11450
▁crowded	-11451
▁retreat	-11452
▁thermal	-11453
▁Anderson	-11454
▁detection	-11455
▁legendary	-11456
Bay	-11457
▁52	-11458
depth	-11459
icity	-11460
reach	-11461
▁Mail	-11462
▁Rout	-11463
▁jail	-11464
▁tags	-11465
▁Active	-11466
▁loaded	-11467
▁discrim	-11468
effective	-11469
▁disabled	-11470
▁attendees	-11471
▁professionally	-11472
▁BBQ	-11473
▁bikes	-11474
verages	-11475
writing	-11476
▁facial	-11477
▁neutral	-11478
▁placing	-11479
▁reveals	-11480
▁Innovation	-11481
har	-11482
lar	-11483
▁Cream	-11484
▁Dress	-11485
naments	-11486
▁ranking	-11487
▁receives	-11488
▁appliance	-11489
▁vulnerable	-11490
▁demonstrated	-11491
burn	-11492
▁Navy	-11493
▁dairy	-11494
▁novels	-11495
▁handles	-11496
▁Technologies	-11497
▁CT	-11498
▁bun	-11499
▁oak	-11500
▁2001	-11501
▁Pier	-11502
icking	-11503
▁Nigeria	-11504
▁formats	-11505
▁seasonal	-11506
▁analytics	-11507
▁85	-11508
iffs	-11509
dated	-11510
▁iPod	-11511
apolis	-11512
▁eaten	-11513
▁winds	-11514
▁divers	-11515
▁Culture	-11516
▁discussing	-11517
▁MT	-11518
▁HTML	-11519
▁caut	-11520
▁Liver	-11521
▁Photos	-11522
▁digest	-11523
▁guilty	-11524
▁persist	-11525
▁Stainless	-11526
▁identification	-11527
rep	-11528
▁od	-11529
elson	-11530
▁Java	-11531
stairs	-11532
▁slept	-11533
ighters	-11534
▁Celebr	-11535
▁defend	-11536
ifferent	-11537
▁fingers	-11538
▁Corporate	-11539
▁placement	-11540
▁Democratic	-11541
FS	-11542
▁Ka	-11543
code	-11544
this	-11545
▁26,	-11546
umbai	-11547
▁electro	-11548
▁scoring	-11549
LP	-11550
18.	-11551
enz	-11552
▁ET	-11553
▁Fu	-11554
▁ske	-11555
▁wax	-11556
issan	-11557
▁Cold	-11558
▁Brooklyn	-11559
▁Missouri	-11560
▁intelligent	-11561
GS	-11562
bus	-11563
anth	-11564
avan	-11565
opes	-11566
rise	-11567
▁$50	-11568
▁31,	-11569
▁Sab	-11570
▁Tea	-11571
▁Chef	-11572
▁Nash	-11573
▁YOUR	-11574
▁Magic	-11575
▁Pitts	-11576
▁timing	-11577
▁dressing	-11578
▁physician	-11579
▁physically	-11580
▁agricultural	-11581
▁700	-11582
istol	-11583
▁chairman	-11584
▁healthier	-11585
▁motorcycle	-11586
▁accomplished	-11587
acle	-11588
▁Had	-11589
angel	-11590
enter	-11591
▁Math	-11592
▁Xbox	-11593
▁Pictures	-11594
▁cryptocur	-11595
▁ecosystem	-11596
63	-11597
When	-11598
aton	-11599
▁Bah	-11600
▁McK	-11601
▁rod	-11602
▁Imag	-11603
▁sixth	-11604
▁builds	-11605
▁purple	-11606
▁dialing	-11607
▁nations	-11608
▁drawings	-11609
ocal	-11610
ylon	-11611
building	-11612
▁impacts	-11613
▁homeless	-11614
▁journals	-11615
▁learners	-11616
▁aggressive	-11617
▁transferred	-11618
▁SK	-11619
▁Ark	-11620
adget	-11621
shirt	-11622
▁Yeah	-11623
▁hunt	-11624
▁nuts	-11625
▁Panel	-11626
▁Prize	-11627
▁Bureau	-11628
▁collar	-11629
fections	-11630
rapeutic	-11631
▁Oklahoma	-11632
▁Switzerland	-11633
▁partnerships	-11634
sl	-11635
OUN	-11636
▁Mas	-11637
▁Bear	-11638
▁epic	-11639
loaded	-11640
▁meter	-11641
ascular	-11642
forward	-11643
▁disturb	-11644
▁vitamin	-11645
▁merchandise	-11646
ni	-11647
zan	-11648
▁(1)	-11649
iches	-11650
▁Whit	-11651
▁ears	-11652
▁radi	-11653
▁wool	-11654
▁cookie	-11655
▁heater	-11656
▁infect	-11657
▁costume	-11658
▁pushing	-11659
▁Analysis	-11660
▁Delivery	-11661
▁libraries	-11662
▁reportedly	-11663
▁magnificent	-11664
▁installations	-11665
900	-11666
bes	-11667
▁boil	-11668
▁myth	-11669
▁Swiss	-11670
▁buses	-11671
▁cargo	-11672
▁Indonesia	-11673
▁Universal	-11674
73	-11675
92	-11676
FT	-11677
-200	-11678
erto	-11679
▁Gab	-11680
▁cub	-11681
▁Dean	-11682
▁WITH	-11683
▁noon	-11684
▁Falls	-11685
▁immune	-11686
▁Mexican	-11687
▁decorated	-11688
▁adventures	-11689
▁RA	-11690
rend	-11691
▁fut	-11692
▁nin	-11693
▁tries	-11694
▁Origin	-11695
▁Visual	-11696
▁fallen	-11697
otherapy	-11698
▁painful	-11699
▁penalty	-11700
▁Atlantic	-11701
▁grandmother	-11702
onge	-11703
▁Andy	-11704
▁unve	-11705
▁Denver	-11706
▁locate	-11707
▁Therapy	-11708
▁console	-11709
▁microwave	-11710
▁compassion	-11711
▁essentially	-11712
▁involvement	-11713
▁Ho	-11714
▁ip	-11715
inge	-11716
▁Cow	-11717
ometric	-11718
ognitive	-11719
▁someday	-11720
▁recipient	-11721
▁responsive	-11722
▁continually	-11723
▁Joy	-11724
▁Gene	-11725
▁kits	-11726
▁Lights	-11727
▁Aqu	-11728
lando	-11729
atinum	-11730
▁Rober	-11731
▁votes	-11732
▁scenario	-11733
▁stopping	-11734
▁treating	-11735
ITY	-11736
▁MI	-11737
rous	-11738
▁pear	-11739
▁grows	-11740
▁scroll	-11741
▁tablets	-11742
▁Caribbean	-11743
▁agriculture	-11744
▁medications	-11745
hers	-11746
▁24,	-11747
▁Dat	-11748
▁Jer	-11749
▁sou	-11750
▁Gulf	-11751
▁sail	-11752
▁Defin	-11753
▁Driver	-11754
▁protest	-11755
▁Shanghai	-11756
▁converted	-11757
VP	-11758
eman	-11759
allel	-11760
▁Palm	-11761
▁Race	-11762
irates	-11763
▁Kings	-11764
▁drunk	-11765
▁tuned	-11766
▁weren	-11767
▁terrace	-11768
▁diagnosed	-11769
▁Photography	-11770
▁pharmaceutical	-11771
▁2)	-11772
dict	-11773
▁buck	-11774
▁dose	-11775
arrass	-11776
▁enorm	-11777
▁immigr	-11778
▁Captain	-11779
▁footage	-11780
▁mystery	-11781
▁fireworks	-11782
UC	-11783
ARD	-11784
cake	-11785
▁LOVE	-11786
▁Turk	-11787
▁Clark	-11788
service	-11789
▁inclus	-11790
▁cycling	-11791
▁earning	-11792
▁Barcelona	-11793
▁Ori	-11794
▁Beauty	-11795
▁Edward	-11796
▁albums	-11797
▁Mississ	-11798
▁dealers	-11799
▁customize	-11800
▁municipal	-11801
▁territory	-11802
▁Tow	-11803
▁Allen	-11804
▁dried	-11805
▁agenda	-11806
▁grocery	-11807
▁solving	-11808
▁consecut	-11809
▁wholesale	-11810
/1	-11811
▁43	-11812
emet	-11813
▁drag	-11814
▁Agree	-11815
▁nurse	-11816
▁elderly	-11817
▁sisters	-11818
▁visibility	-11819
chi	-11820
▁Gram	-11821
▁silk	-11822
vation	-11823
▁fancy	-11824
▁Vision	-11825
▁nicely	-11826
▁disorder	-11827
▁identifying	-11828
▁UC	-11829
wick	-11830
▁shy	-11831
▁unp	-11832
▁carp	-11833
▁hence	-11834
▁Garage	-11835
▁Poland	-11836
▁Address	-11837
▁hitting	-11838
▁talents	-11839
▁voltage	-11840
▁courtesy	-11841
▁influenced	-11842
sk	-11843
▁ende	-11844
▁scal	-11845
▁grain	-11846
▁desert	-11847
▁tomato	-11848
▁sensors	-11849
▁trigger	-11850
ropolitan	-11851
▁elsewhere	-11852
▁navigation	-11853
fund	-11854
▁Iss	-11855
▁Nev	-11856
claim	-11857
▁nbsp	-11858
▁2009.	-11859
▁promises	-11860
▁BO	-11861
edar	-11862
▁bust	-11863
▁dear	-11864
▁Grade	-11865
▁serial	-11866
▁devoted	-11867
▁Hopefully	-11868
▁distinctive	-11869
oil	-11870
▁>>	-11871
▁Ow	-11872
▁Ora	-11873
itations	-11874
▁agreements	-11875
Pal	-11876
▁RS	-11877
▁Aer	-11878
count	-11879
▁Hung	-11880
▁Years	-11881
▁overs	-11882
▁pools	-11883
▁sushi	-11884
▁Harris	-11885
▁settled	-11886
▁combining	-11887
▁complaints	-11888
▁Od	-11889
▁lid	-11890
chair	-11891
▁Kate	-11892
▁seeks	-11893
▁Really	-11894
▁fortun	-11895
▁thirty	-11896
▁Gardens	-11897
▁wondered	-11898
▁daughters	-11899
▁regulation	-11900
Qu	-11901
▁Leon	-11902
▁Suite	-11903
▁noodles	-11904
▁principle	-11905
▁relatives	-11906
▁universal	-11907
▁warehouse	-11908
▁Born	-11909
▁Ridge	-11910
▁Susan	-11911
▁Integr	-11912
▁spectrum	-11913
▁traveled	-11914
▁wardrobe	-11915
▁Leadership	-11916
700	-11917
▁Lad	-11918
▁neat	-11919
▁tear	-11920
▁Parts	-11921
▁aging	-11922
▁appet	-11923
▁verify	-11924
▁consent	-11925
▁queries	-11926
▁reservation	-11927
▁complimentary	-11928
UB	-11929
▁Mt	-11930
aria	-11931
issa	-11932
quer	-11933
ugar	-11934
▁Advis	-11935
▁Taking	-11936
▁ranges	-11937
▁Whenever	-11938
▁Associates	-11939
▁conjunction	-11940
▁interactions	-11941
pire	-11942
▁Gil	-11943
heart	-11944
▁Activ	-11945
▁Ground	-11946
▁Record	-11947
▁settle	-11948
▁expense	-11949
irational	-11950
▁premises	-11951
▁neighbour	-11952
▁suspension	-11953
▁01	-11954
lies	-11955
iscal	-11956
▁Mumbai	-11957
▁hassle	-11958
▁merely	-11959
▁mutual	-11960
▁sponsor	-11961
▁Features	-11962
▁acknowled	-11963
To	-11964
▁$20	-11965
▁lun	-11966
oning	-11967
ontal	-11968
▁boats	-11969
▁tears	-11970
▁Century	-11971
▁phrases	-11972
▁Alexander	-11973
▁complaint	-11974
FP	-11975
▁08	-11976
▁Ze	-11977
phan	-11978
▁1999	-11979
inters	-11980
ndrome	-11981
▁salon	-11982
▁Justin	-11983
▁Content	-11984
▁islands	-11985
▁signals	-11986
▁corrected	-11987
▁measuring	-11988
xygen	-11989
commun	-11990
▁Maine	-11991
▁Ultra	-11992
▁anime	-11993
▁hills	-11994
▁wheat	-11995
▁propri	-11996
▁refers	-11997
▁stroke	-11998
▁loading	-11999
▁intervention	-12000
%)	-12001
hill	-12002
▁1/4	-12003
▁27,	-12004
▁Trib	-12005
▁trad	-12006
itivity	-12007
▁filing	-12008
▁intend	-12009
▁pushed	-12010
▁tension	-12011
▁adequate	-12012
▁aesthetic	-12013
▁Investment	-12014
▁underground	-12015
▁Registration	-12016
▁measurements	-12017
only	-12018
▁Dad	-12019
▁NYC	-12020
▁Alab	-12021
▁Gord	-12022
▁dele	-12023
izable	-12024
resist	-12025
▁Close	-12026
▁Index	-12027
▁Wheel	-12028
▁shirts	-12029
▁Defense	-12030
▁Factory	-12031
▁Masters	-12032
▁whereas	-12033
▁intimate	-12034
▁soldiers	-12035
▁incorrect	-12036
▁encourages	-12037
▁preferences	-12038
▁experimental	-12039
61	-12040
EG	-12041
mel	-12042
▁Ali	-12043
▁Dal	-12044
▁Wik	-12045
writer	-12046
▁Conne	-12047
▁Shower	-12048
▁Detroit	-12049
▁absence	-12050
▁rewards	-12051
▁utilizing	-12052
▁varieties	-12053
▁disability	-12054
▁technological	-12055
▁HS	-12056
omic	-12057
▁Marg	-12058
▁Surg	-12059
▁packing	-12060
▁shorter	-12061
▁cosmetic	-12062
▁Cleveland	-12063
Co	-12064
EP	-12065
enny	-12066
isan	-12067
▁Kam	-12068
▁Rent	-12069
school	-12070
▁scary	-12071
▁wound	-12072
▁Greece	-12073
▁Crystal	-12074
▁embedded	-12075
▁Associate	-12076
▁destroyed	-12077
▁notification	-12078
XX	-12079
▁41	-12080
▁pp	-12081
ante	-12082
hesive	-12083
ortion	-12084
▁Alaska	-12085
American	-12086
▁assisted	-12087
▁followers	-12088
▁integrate	-12089
▁confirmation	-12090
rin	-12091
mann	-12092
shot	-12093
▁900	-12094
adows	-12095
▁blade	-12096
▁locked	-12097
▁Commerce	-12098
▁branding	-12099
▁calories	-12100
▁proposals	-12101
▁OH	-12102
auge	-12103
▁Pos	-12104
green	-12105
ushes	-12106
emetery	-12107
▁aggreg	-12108
▁stressed	-12109
▁thankful	-12110
▁countless	-12111
▁embarrass	-12112
▁controller	-12113
oops	-12114
wart	-12115
▁Ach	-12116
▁pork	-12117
▁sweat	-12118
▁lighter	-12119
▁simultaneously	-12120
▁TN	-12121
▁Ott	-12122
range	-12123
stick	-12124
▁Buck	-12125
▁rush	-12126
▁sons	-12127
orized	-12128
▁trash	-12129
▁modify	-12130
▁internship	-12131
di	-12132
30.	-12133
aved	-12134
▁Mun	-12135
ancers	-12136
▁collective	-12137
▁assignments	-12138
▁GT	-12139
▁py	-12140
▁PRO	-12141
▁Crew	-12142
▁10,000	-12143
▁freely	-12144
▁wallet	-12145
▁tuition	-12146
▁founding	-12147
▁nonprofit	-12148
82	-12149
▁́	-12150
▁4:	-12151
▁Da	-12152
agan	-12153
▁Sens	-12154
▁reun	-12155
inking	-12156
orious	-12157
▁inhib	-12158
▁intrig	-12159
▁preced	-12160
▁voters	-12161
▁viewers	-12162
▁accompany	-12163
▁marijuana	-12164
▁VP	-12165
conf	-12166
core	-12167
opic	-12168
▁Hop	-12169
aturing	-12170
▁Luxury	-12171
▁Volunte	-12172
▁veteran	-12173
▁chemistry	-12174
▁requiring	-12175
▁consecutive	-12176
▁overwhelming	-12177
84	-12178
ashi	-12179
▁din	-12180
party	-12181
▁Survey	-12182
▁balcony	-12183
▁browsing	-12184
▁Parliament	-12185
▁translated	-12186
???	-12187
poke	-12188
▁$25	-12189
emade	-12190
▁1960	-12191
▁peer	-12192
▁Paint	-12193
▁cement	-12194
▁desper	-12195
▁weddings	-12196
▁NA	-12197
icop	-12198
plus	-12199
▁Say	-12200
eland	-12201
▁steady	-12202
▁worlds	-12203
izations	-12204
▁demanding	-12205
▁execution	-12206
▁protective	-12207
▁backgrounds	-12208
ELL	-12209
▁UV	-12210
arat	-12211
post	-12212
▁Pod	-12213
▁cozy	-12214
▁sung	-12215
▁Death	-12216
▁Electronic	-12217
▁conditioner	-12218
▁MC	-12219
▁Na	-12220
▁Lem	-12221
▁Lif	-12222
▁tang	-12223
taking	-12224
▁Cheap	-12225
▁twitter	-12226
▁cheapest	-12227
▁portrait	-12228
▁survived	-12229
▁presenting	-12230
Net	-12231
▁Wolf	-12232
▁bree	-12233
▁Adobe	-12234
▁Grace	-12235
▁stove	-12236
▁Retail	-12237
▁Earlier	-12238
▁dressed	-12239
▁feeding	-12240
▁prototy	-12241
▁Kentucky	-12242
▁automation	-12243
▁appreciation	-12244
▁Rd	-12245
bird	-12246
▁Tag	-12247
draul	-12248
▁Range	-12249
clusive	-12250
▁coating	-12251
▁accessed	-12252
▁Pinterest	-12253
▁districts	-12254
MB	-12255
▁95	-12256
▁UA	-12257
ieces	-12258
immer	-12259
marks	-12260
speed	-12261
▁Coup	-12262
▁Flat	-12263
▁dorm	-12264
▁Collect	-12265
▁fixtures	-12266
▁departure	-12267
▁alternatives	-12268
▁Bou	-12269
▁Nar	-12270
▁Nep	-12271
▁Slo	-12272
ishop	-12273
▁Lots	-12274
▁congr	-12275
▁Supply	-12276
▁dessert	-12277
▁concerts	-12278
▁surroundings	-12279
▁curry	-12280
▁retro	-12281
ividual	-12282
▁charts	-12283
▁dismiss	-12284
▁Intellig	-12285
▁abstract	-12286
▁computing	-12287
▁launching	-12288
▁replacing	-12289
▁recreational	-12290
▁Rol	-12291
▁Coal	-12292
▁bits	-12293
necess	-12294
▁strip	-12295
▁barely	-12296
▁improves	-12297
hh	-12298
aro	-12299
anga	-12300
▁Abs	-12301
▁humor	-12302
▁unfor	-12303
istical	-12304
▁insist	-12305
▁vanity	-12306
▁maximize	-12307
▁reminded	-12308
▁litigation	-12309
▁experiments	-12310
gic	-12311
▁GB	-12312
▁Fra	-12313
▁Lag	-12314
▁cha	-12315
allic	-12316
▁cher	-12317
lation	-12318
▁Touch	-12319
▁Bluetooth	-12320
bul	-12321
▁Roc	-12322
▁gem	-12323
▁Administr	-12324
▁Emergency	-12325
▁breathing	-12326
▁specialize	-12327
▁corporations	-12328
Up	-12329
▁(“	-12330
empl	-12331
▁exec	-12332
▁grip	-12333
▁batch	-12334
pensive	-12335
▁ancest	-12336
▁outlet	-12337
▁Location	-12338
▁dimension	-12339
▁intensive	-12340
▁underlying	-12341
▁Wa	-12342
ippi	-12343
▁Coord	-12344
▁explo	-12345
▁lobby	-12346
▁Alabama	-12347
▁Islamic	-12348
▁Jennifer	-12349
▁hardwood	-12350
▁incorporated	-12351
▁tv	-12352
▁Nich	-12353
itutes	-12354
ounced	-12355
▁invas	-12356
▁sells	-12357
▁squad	-12358
▁Medicare	-12359
▁mobility	-12360
▁musician	-12361
▁Questions	-12362
▁organised	-12363
▁conducting	-12364
▁discipline	-12365
mi	-12366
▁Kan	-12367
▁Mosc	-12368
▁closest	-12369
▁landing	-12370
▁possession	-12371
xus	-12372
even	-12373
▁Bott	-12374
▁baked	-12375
▁Charlotte	-12376
ORT	-12377
arel	-12378
uman	-12379
▁Drop	-12380
▁cant	-12381
▁gang	-12382
▁mesh	-12383
▁Bruce	-12384
▁stere	-12385
▁Studios	-12386
▁coastal	-12387
▁checkout	-12388
▁Essential	-12389
PG	-12390
WA	-12391
▁ABC	-12392
▁Wee	-12393
andel	-12394
▁barg	-12395
timore	-12396
▁Andre	-12397
▁Exhib	-12398
▁Prices	-12399
▁AV	-12400
▁eco	-12401
about	-12402
paren	-12403
▁owns	-12404
▁charter	-12405
▁radiation	-12406
▁insulation	-12407
▁newspapers	-12408
▁subsequent	-12409
ML	-12410
Ne	-12411
aco	-12412
gun	-12413
▁3.5	-12414
backs	-12415
built	-12416
phoon	-12417
▁Lisa	-12418
▁rides	-12419
▁Player	-12420
▁rentals	-12421
▁necklace	-12422
▁executives	-12423
NY	-12424
agne	-12425
zens	-12426
▁24-	-12427
▁Amy	-12428
▁Oft	-12429
isode	-12430
▁Anim	-12431
▁Israeli	-12432
▁Hamilton	-12433
..."	-12434
▁Bull	-12435
▁Flex	-12436
▁lung	-12437
▁Focus	-12438
▁drill	-12439
▁rustic	-12440
▁easiest	-12441
▁outlets	-12442
▁sequence	-12443
▁updating	-12444
▁hospitality	-12445
ACH	-12446
uros	-12447
▁bou	-12448
▁hem	-12449
▁Stir	-12450
▁Terr	-12451
▁poem	-12452
▁Canon	-12453
▁skirt	-12454
▁Target	-12455
▁intake	-12456
▁minerals	-12457
▁corrections	-12458
▁headquarters	-12459
/.	-12460
KS	-12461
iar	-12462
kle	-12463
http	-12464
▁Veh	-12465
acles	-12466
▁Alan	-12467
▁Answ	-12468
ellery	-12469
▁cancel	-12470
▁travels	-12471
CR	-12472
ASE	-12473
▁Jen	-12474
▁gam	-12475
amins	-12476
▁Skin	-12477
▁gard	-12478
▁crisp	-12479
▁rolled	-12480
▁versus	-12481
▁sporting	-12482
▁Relations	-12483
▁appealing	-12484
▁Communication	-12485
oko	-12486
file	-12487
▁gig	-12488
▁mos	-12489
orted	-12490
▁mall	-12491
▁Write	-12492
▁pumps	-12493
▁strap	-12494
▁Friend	-12495
▁stolen	-12496
▁envelop	-12497
▁nationally	-12498
DR	-12499
Do	-12500
uy	-12501
mad	-12502
rary	-12503
▁fer	-12504
▁Path	-12505
▁quar	-12506
▁toxic	-12507
▁Baltimore	-12508
▁synthetic	-12509
▁establishment	-12510
rons	-12511
▁SUV	-12512
▁clim	-12513
ometer	-12514
▁Intel	-12515
▁entity	-12516
▁Greater	-12517
▁Stadium	-12518
▁reminds	-12519
▁searched	-12520
▁appointments	-12521
izers	-12522
▁Gray	-12523
▁Dynam	-12524
▁basics	-12525
▁pixels	-12526
▁potato	-12527
▁Antonio	-12528
▁centres	-12529
▁recovered	-12530
▁renewable	-12531
▁differently	-12532
▁BL	-12533
icut	-12534
▁Fly	-12535
▁mud	-12536
▁Soon	-12537
▁manip	-12538
▁rocks	-12539
ergarten	-12540
▁Directors	-12541
▁recommendation	-12542
▁Dak	-12543
▁THIS	-12544
▁skip	-12545
▁Basic	-12546
▁maxim	-12547
▁Palest	-12548
▁horror	-12549
▁Weather	-12550
▁inflamm	-12551
▁startup	-12552
▁thrilled	-12553
▁attracted	-12554
▁economics	-12555
▁highlighted	-12556
▁Ni	-12557
info	-12558
uity	-12559
isers	-12560
▁mush	-12561
driven	-12562
▁2008.	-12563
illance	-12564
parency	-12565
▁clever	-12566
▁hazard	-12567
▁Duration	-12568
▁bankrupt	-12569
▁curtains	-12570
▁duration	-12571
▁Mes	-12572
▁NBA	-12573
osity	-12574
ospel	-12575
▁Qual	-12576
▁brake	-12577
▁dozen	-12578
▁manif	-12579
▁solely	-12580
▁vessel	-12581
▁gaining	-12582
▁uncomfortable	-12583
▁iT	-12584
▁yarn	-12585
▁liver	-12586
▁lover	-12587
arrings	-12588
▁devast	-12589
▁Liverpool	-12590
▁competing	-12591
▁prospective	-12592
eta	-12593
▁Boys	-12594
▁adopt	-12595
▁bones	-12596
▁packs	-12597
▁Butter	-12598
▁cleans	-12599
▁Respons	-12600
▁farming	-12601
▁warming	-12602
▁subscrib	-12603
▁relaxation	-12604
▁decorations	-12605
▁introducing	-12606
arer	-12607
usal	-12608
▁Edge	-12609
▁burg	-12610
▁Value	-12611
▁Afghan	-12612
▁closure	-12613
OME	-12614
kee	-12615
▁Pic	-12616
oustic	-12617
struct	-12618
ulates	-12619
▁legit	-12620
▁reads	-12621
▁diesel	-12622
........	-12623
▁Virtual	-12624
▁consolid	-12625
▁Depending	-12626
▁Featuring	-12627
▁countryside	-12628
▁160	-12629
▁29,	-12630
uters	-12631
▁toss	-12632
▁2007.	-12633
▁audit	-12634
▁genre	-12635
▁icons	-12636
▁burden	-12637
ondition	-12638
▁highway	-12639
▁investor	-12640
▁moderate	-12641
▁dependent	-12642
▁counseling	-12643
▁IV	-12644
anean	-12645
icked	-12646
track	-12647
▁Mira	-12648
▁toll	-12649
▁wing	-12650
leading	-12651
▁Hunter	-12652
pectives	-12653
▁centuries	-12654
▁travelers	-12655
▁waterproof	-12656
-30	-12657
▁HV	-12658
flix	-12659
▁gut	-12660
▁vou	-12661
▁dive	-12662
irable	-12663
owered	-12664
▁Given	-12665
▁draws	-12666
▁stroll	-12667
iplinary	-12668
▁beliefs	-12669
▁captain	-12670
▁Something	-12671
▁Convention	-12672
▁preventing	-12673
▁connectivity	-12674
▁disabilities	-12675
▁ES	-12676
ipper	-12677
▁Mars	-12678
ateral	-12679
ricane	-12680
▁Compl	-12681
▁theft	-12682
▁bronze	-12683
▁defeat	-12684
▁Leather	-12685
▁assists	-12686
▁tribute	-12687
▁Nowadays	-12688
▁Physical	-12689
▁beginner	-12690
▁supportive	-12691
▁tremendous	-12692
▁consistency	-12693
▁corresponding	-12694
olo	-12695
▁gy	-12696
▁Ful	-12697
▁loft	-12698
arness	-12699
ocracy	-12700
▁neglect	-12701
▁colleague	-12702
lu	-12703
ete	-12704
gie	-12705
mind	-12706
▁tar	-12707
ilings	-12708
▁hoped	-12709
igenous	-12710
▁denied	-12711
▁adjusted	-12712
▁invested	-12713
▁Wallpaper	-12714
▁Production	-12715
▁//	-12716
▁IA	-12717
kend	-12718
▁Half	-12719
▁cere	-12720
▁Blood	-12721
fecture	-12722
▁voting	-12723
ventions	-12724
▁Partner	-12725
▁Someone	-12726
▁corners	-12727
▁flavour	-12728
▁imaging	-12729
▁symbols	-12730
oku	-12731
pin	-12732
▁HE	-12733
game	-12734
▁(2)	-12735
▁Cou	-12736
chron	-12737
master	-12738
▁Moore	-12739
▁Phill	-12740
▁Landsc	-12741
▁barriers	-12742
▁compound	-12743
wy	-12744
cha	-12745
cur	-12746
around	-12747
▁breed	-12748
▁resil	-12749
▁pencil	-12750
▁longest	-12751
▁mothers	-12752
▁vessels	-12753
▁cocktail	-12754
▁upgrades	-12755
With	-12756
olas	-12757
▁whis	-12758
advant	-12759
ipedia	-12760
▁blessed	-12761
▁Shopping	-12762
▁weakness	-12763
▁practiced	-12764
▁prospects	-12765
▁respected	-12766
▁Pittsburgh	-12767
UK	-12768
die	-12769
▁6-	-12770
gary	-12771
▁Bowl	-12772
▁Utah	-12773
▁Frame	-12774
▁Potter	-12775
▁counts	-12776
▁rhythm	-12777
▁weapon	-12778
▁observe	-12779
▁adjacent	-12780
ACT	-12781
cium	-12782
otan	-12783
size	-12784
▁Lov	-12785
annah	-12786
matic	-12787
orient	-12788
▁suicide	-12789
▁Comments	-12790
▁polished	-12791
▁reminder	-12792
▁unnecess	-12793
▁submission	-12794
96	-12795
cca	-12796
▁RV	-12797
▁Si	-12798
▁Der	-12799
▁Hub	-12800
ancer	-12801
ioned	-12802
▁Pour	-12803
▁robot	-12804
▁Format	-12805
▁Moscow	-12806
▁Strong	-12807
▁welfare	-12808
▁traditions	-12809
94	-12810
aba	-12811
▁46	-12812
oria	-12813
▁Pas	-12814
▁SER	-12815
▁Built	-12816
▁chill	-12817
▁herbs	-12818
▁gadget	-12819
▁lenses	-12820
▁museums	-12821
▁manually	-12822
▁separated	-12823
83	-12824
UP	-12825
stan	-12826
user	-12827
oline	-12828
▁Howard	-12829
▁deaths	-12830
▁onions	-12831
▁pupils	-12832
▁embrace	-12833
▁hobbies	-12834
▁stadium	-12835
esc	-12836
lig	-12837
▁$6	-12838
▁ho	-12839
anka	-12840
allow	-12841
ching	-12842
▁pays	-12843
urable	-12844
▁locals	-12845
▁stitch	-12846
▁enormous	-12847
▁umbrella	-12848
▁supplements	-12849
URE	-12850
hist	-12851
▁Ster	-12852
▁Tools	-12853
▁ports	-12854
▁trainer	-12855
▁anticipated	-12856
But	-12857
▁54	-12858
oded	-12859
▁Mos	-12860
▁bake	-12861
▁Norway	-12862
breaking	-12863
▁Orlando	-12864
▁Strateg	-12865
▁Sustain	-12866
▁Lawrence	-12867
▁explores	-12868
!”	-12869
01	-12870
sun	-12871
▁awa	-12872
▁jar	-12873
▁Incre	-12874
▁Track	-12875
▁pairs	-12876
▁marble	-12877
▁Harvard	-12878
▁advisor	-12879
▁McDonald	-12880
▁unemploy	-12881
▁boundaries	-12882
Ind	-12883
▁Fill	-12884
▁Carpet	-12885
▁Nevada	-12886
▁affairs	-12887
▁lawsuit	-12888
▁refused	-12889
▁sellers	-12890
▁suppose	-12891
▁cannabis	-12892
▁patience	-12893
▁surgical	-12894
▁logistics	-12895
▁recognised	-12896
▁achievements	-12897
So	-12898
▁Lay	-12899
▁Spa	-12900
▁clay	-12901
▁fork	-12902
ancies	-12903
▁?????	-12904
▁nails	-12905
▁nurses	-12906
▁custody	-12907
▁touched	-12908
▁vanilla	-12909
▁floating	-12910
▁lectures	-12911
▁variations	-12912
▁Mississippi	-12913
▁Transportation	-12914
▁16.	-12915
esign	-12916
▁tray	-12917
▁enemy	-12918
▁harsh	-12919
▁innoc	-12920
▁Polish	-12921
▁speeds	-12922
▁Swedish	-12923
19.	-12924
ethe	-12925
▁193	-12926
▁Kal	-12927
uther	-12928
▁haha	-12929
▁horm	-12930
orship	-12931
▁Monte	-12932
▁Sleep	-12933
▁grill	-12934
▁metab	-12935
▁query	-12936
▁tones	-12937
▁Unique	-12938
▁Housing	-12939
▁Lighting	-12940
▁steering	-12941
▁upgraded	-12942
▁enterprises	-12943
▁Organization	-12944
ogy	-12945
▁56	-12946
iper	-12947
▁ups	-12948
arner	-12949
▁encry	-12950
▁spicy	-12951
▁Cabinet	-12952
▁density	-12953
▁generic	-12954
▁genetic	-12955
▁inclusion	-12956
▁rewarding	-12957
BR	-12958
Tr	-12959
oya	-12960
▁HIV	-12961
▁Len	-12962
▁aqu	-12963
▁ber	-12964
▁duo	-12965
▁gay	-12966
break	-12967
▁amid	-12968
▁ties	-12969
▁Users	-12970
▁bother	-12971
▁Connecticut	-12972
/3	-12973
▁30-	-12974
▁Gib	-12975
▁PHP	-12976
▁lined	-12977
▁pulling	-12978
▁connects	-12979
▁subscribe	-12980
▁”	-12981
▁mp	-12982
arin	-12983
rene	-12984
▁nap	-12985
▁Hans	-12986
▁mart	-12987
imedia	-12988
▁Kenya	-12989
▁Often	-12990
▁Listen	-12991
▁Scholars	-12992
▁inclusive	-12993
▁suspended	-12994
74	-12995
▁cure	-12996
▁eBay	-12997
▁sore	-12998
▁paths	-12999
▁peers	-13000
▁texts	-13001
▁Madrid	-13002
▁Oracle	-13003
▁immers	-13004
▁lonely	-13005
▁washed	-13006
▁Distribut	-13007
▁trademark	-13008
▁enthusiasm	-13009
▁contributing	-13010
▁Fel	-13011
otion	-13012
▁ghost	-13013
▁provin	-13014
▁tricks	-13015
▁Individual	-13016
▁physicians	-13017
▁renovation	-13018
▁certificates	-13019
▁competitions	-13020
▁Bio	-13021
▁Dur	-13022
▁pond	-13023
▁ranks	-13024
▁Native	-13025
▁Palace	-13026
▁christ	-13027
▁Between	-13028
▁opposed	-13029
▁physics	-13030
!).	-13031
igo	-13032
▁PO	-13033
bane	-13034
held	-13035
▁Lap	-13036
cuits	-13037
▁Manh	-13038
▁migr	-13039
asures	-13040
▁Heavy	-13041
lington	-13042
▁strain	-13043
▁Democrats	-13044
▁«	-13045
▁Kay	-13046
iterr	-13047
▁Beck	-13048
▁Drug	-13049
▁Jobs	-13050
▁heal	-13051
▁2008,	-13052
▁teens	-13053
▁ethnic	-13054
▁Faculty	-13055
▁antique	-13056
▁sometime	-13057
▁acceptable	-13058
▁classified	-13059
▁VIP	-13060
▁$500	-13061
▁Sets	-13062
rupted	-13063
▁2009,	-13064
▁excel	-13065
▁groom	-13066
fulness	-13067
▁diving	-13068
jections	-13069
▁Belgium	-13070
▁Transfer	-13071
▁integral	-13072
▁consultants	-13073
▁IF	-13074
▁Ted	-13075
rated	-13076
▁Boot	-13077
▁Brun	-13078
▁Dent	-13079
▁Hack	-13080
▁Soul	-13081
▁Lakes	-13082
▁bride	-13083
▁dilig	-13084
▁rival	-13085
▁vegan	-13086
▁Conserv	-13087
▁companion	-13088
▁considerable	-13089
tendo	-13090
▁Bapt	-13091
▁Sold	-13092
▁drew	-13093
▁todd	-13094
▁Domin	-13095
▁Freed	-13096
▁porch	-13097
▁Primary	-13098
▁eastern	-13099
▁Christians	-13100
▁addressing	-13101
▁complexity	-13102
▁Independent	-13103
IX	-13104
▁DR	-13105
▁Yam	-13106
elect	-13107
borough	-13108
▁Assess	-13109
▁pedest	-13110
▁sacrif	-13111
▁slides	-13112
▁warmth	-13113
▁Related	-13114
▁adapted	-13115
05	-13116
eps	-13117
▁Stri	-13118
▁Tips	-13119
▁glue	-13120
▁tent	-13121
▁landl	-13122
▁Fitness	-13123
▁seafood	-13124
▁extensions	-13125
AK	-13126
Tech	-13127
▁chi	-13128
▁Twin	-13129
▁chic	-13130
▁conce	-13131
▁shore	-13132
▁Nissan	-13133
▁derived	-13134
▁advocate	-13135
▁crossing	-13136
▁sunshine	-13137
▁throwing	-13138
▁Federation	-13139
▁therapeutic	-13140
iko	-13141
erie	-13142
▁Alb	-13143
▁Rab	-13144
▁immun	-13145
▁towel	-13146
▁analys	-13147
▁stairs	-13148
liminary	-13149
▁belongs	-13150
▁pharmac	-13151
▁proudly	-13152
▁unforget	-13153
▁mysterious	-13154
▁progressive	-13155
▁presidential	-13156
ASH	-13157
ergy	-13158
good	-13159
such	-13160
▁Sett	-13161
▁brid	-13162
▁Judge	-13163
▁Wayne	-13164
▁baths	-13165
▁sleek	-13166
▁tempt	-13167
▁Beyond	-13168
▁puzzle	-13169
▁rounds	-13170
▁catering	-13171
▁entities	-13172
▁memorial	-13173
▁veterans	-13174
▁decreased	-13175
▁priorities	-13176
▁BT	-13177
zech	-13178
▁Fro	-13179
▁Crim	-13180
▁Subs	-13181
▁fool	-13182
▁pest	-13183
uitive	-13184
▁Grove	-13185
▁alleg	-13186
▁dryer	-13187
assador	-13188
▁mailing	-13189
▁passage	-13190
▁Princess	-13191
▁Workshop	-13192
▁headache	-13193
▁nutrients	-13194
▁Applications	-13195
▁17.	-13196
▁Prob	-13197
▁inhab	-13198
▁rolls	-13199
▁Picture	-13200
▁Christopher	-13201
▁understands	-13202
93	-13203
aku	-13204
▁CE	-13205
osph	-13206
agraph	-13207
health	-13208
▁Costa	-13209
▁Leave	-13210
▁Leader	-13211
▁chains	-13212
▁Netflix	-13213
▁educate	-13214
▁watches	-13215
▁Consider	-13216
▁disposal	-13217
▁Treatment	-13218
▁acceptance	-13219
▁inexpensive	-13220
▁independence	-13221
ITE	-13222
▁uk	-13223
Star	-13224
ango	-13225
thur	-13226
▁Hud	-13227
▁Ple	-13228
▁SQL	-13229
▁Sin	-13230
▁Luke	-13231
worthy	-13232
▁Solid	-13233
▁Steam	-13234
draulic	-13235
▁relate	-13236
▁Counter	-13237
▁railway	-13238
▁interpre	-13239
▁recycled	-13240
IGHT	-13241
ipes	-13242
▁18.	-13243
▁Bor	-13244
▁Islam	-13245
▁Ranch	-13246
▁Clinic	-13247
▁picnic	-13248
▁sketch	-13249
▁handful	-13250
▁affiliate	-13251
▁intensity	-13252
▁informative	-13253
▁Certification	-13254
idth	-13255
▁hal	-13256
amily	-13257
▁Stre	-13258
▁padd	-13259
▁gross	-13260
▁Artist	-13261
▁constra	-13262
▁optical	-13263
▁tasting	-13264
▁Graduate	-13265
▁restricted	-13266
▁MY	-13267
▁Ry	-13268
▁$15	-13269
▁Cole	-13270
▁Stars	-13271
▁Basket	-13272
▁cinema	-13273
▁patent	-13274
▁surfing	-13275
▁annoying	-13276
2-	-13277
IRE	-13278
ptic	-13279
▁(18	-13280
▁tob	-13281
leans	-13282
▁Pump	-13283
▁pipes	-13284
▁wings	-13285
▁Lovely	-13286
▁skiing	-13287
▁elastic	-13288
▁Designer	-13289
▁generator	-13290
▁mg	-13291
▁ARE	-13292
umper	-13293
▁handed	-13294
▁metals	-13295
▁silent	-13296
ablished	-13297
▁Austria	-13298
▁essence	-13299
▁playground	-13300
▁Ot	-13301
anas	-13302
ourse	-13303
▁Hamp	-13304
▁tale	-13305
ourmet	-13306
▁Craig	-13307
▁Seven	-13308
▁disag	-13309
▁lakes	-13310
▁lands	-13311
▁comics	-13312
▁triple	-13313
▁twelve	-13314
▁backing	-13315
▁manages	-13316
▁promising	-13317
▁supplying	-13318
▁establishing	-13319
-11	-13320
oka	-13321
▁MB	-13322
ques	-13323
▁Imm	-13324
▁Mine	-13325
▁Verm	-13326
▁bugs	-13327
▁slim	-13328
▁styl	-13329
▁Laura	-13330
▁Lower	-13331
▁airpl	-13332
▁lasts	-13333
compass	-13334
▁Campus	-13335
▁Mechan	-13336
▁amazed	-13337
▁Organic	-13338
▁acrylic	-13339
▁besides	-13340
▁citizen	-13341
▁clarity	-13342
▁lightly	-13343
▁Category	-13344
iterranean	-13345
▁accredited	-13346
▁accurately	-13347
▁contacting	-13348
mg	-13349
Cont	-13350
igue	-13351
▁140	-13352
▁rab	-13353
▁Jazz	-13354
▁juris	-13355
leyball	-13356
▁Batter	-13357
▁secrets	-13358
▁Downtown	-13359
▁fluently	-13360
ASS	-13361
insp	-13362
orse	-13363
▁RAM	-13364
chant	-13365
phant	-13366
▁Anti	-13367
▁Trip	-13368
▁joke	-13369
▁mira	-13370
tended	-13371
▁gloss	-13372
▁inaug	-13373
▁lying	-13374
▁remed	-13375
▁apolog	-13376
▁washer	-13377
▁Resource	-13378
▁pressing	-13379
▁illustrations	-13380
91	-13381
rena	-13382
▁$1,	-13383
▁OEM	-13384
▁Pul	-13385
▁Dest	-13386
▁Salt	-13387
▁gest	-13388
▁Gordon	-13389
▁Marvel	-13390
▁enrich	-13391
▁fiscal	-13392
▁revers	-13393
▁touches	-13394
▁notified	-13395
▁nowadays	-13396
▁nominated	-13397
▁compromise	-13398
▁suggestion	-13399
▁independently	-13400
▁rehabilitation	-13401
▁MN	-13402
▁Fuk	-13403
▁Led	-13404
▁Osc	-13405
▁Tap	-13406
▁24/7	-13407
▁Argent	-13408
▁Expert	-13409
▁dozens	-13410
▁warned	-13411
▁congrat	-13412
▁Customers	-13413
▁creatures	-13414
▁meditation	-13415
▁Contemporary	-13416
bin	-13417
▁AG	-13418
bank	-13419
urdy	-13420
xide	-13421
▁Fer	-13422
odium	-13423
western	-13424
▁oxygen	-13425
▁ribbon	-13426
▁topped	-13427
specific	-13428
▁Ceiling	-13429
▁reaches	-13430
▁gambling	-13431
▁revenues	-13432
▁seamless	-13433
▁graduating	-13434
▁smartphones	-13435
zo	-13436
hard	-13437
plan	-13438
▁Kid	-13439
▁Edin	-13440
heimer	-13441
▁newer	-13442
atories	-13443
▁Weight	-13444
▁polish	-13445
▁bespoke	-13446
▁parallel	-13447
▁Manhattan	-13448
▁enhancing	-13449
▁unforgettable	-13450
8%	-13451
▁Kr	-13452
▁RF	-13453
▁IBM	-13454
▁tin	-13455
cakes	-13456
eston	-13457
▁Kath	-13458
▁comf	-13459
▁slots	-13460
▁recept	-13461
▁acknowledge	-13462
▁ye	-13463
▁Tar	-13464
▁cho	-13465
▁gum	-13466
▁lou	-13467
▁Feed	-13468
▁Crown	-13469
▁hockey	-13470
▁metres	-13471
▁shadow	-13472
▁receipt	-13473
▁organizing	-13474
▁psychology	-13475
”)	-13476
▁les	-13477
neath	-13478
▁wage	-13479
▁rally	-13480
▁saves	-13481
▁multip	-13482
▁Barbara	-13483
▁assisting	-13484
▁Operations	-13485
▁consisting	-13486
elta	-13487
▁Nob	-13488
▁Madison	-13489
▁animated	-13490
▁stressful	-13491
▁generating	-13492
RO	-13493
apor	-13494
▁Alf	-13495
▁lbs	-13496
▁Snap	-13497
▁hint	-13498
ilarly	-13499
▁Lodge	-13500
▁subtit	-13501
▁theore	-13502
▁android	-13503
▁forests	-13504
▁protects	-13505
▁unlikely	-13506
▁EM	-13507
▁VR	-13508
▁CAN	-13509
▁Tun	-13510
erver	-13511
▁Ideal	-13512
▁dying	-13513
▁wrest	-13514
rencies	-13515
▁boiler	-13516
▁waited	-13517
▁Turkish	-13518
▁homemade	-13519
▁imported	-13520
▁regarded	-13521
Ph	-13522
▁FO	-13523
▁SF	-13524
▁110	-13525
▁Vac	-13526
izard	-13527
▁1950	-13528
▁odds	-13529
▁shout	-13530
▁iTunes	-13531
▁paired	-13532
▁valley	-13533
atherine	-13534
stration	-13535
▁Chicken	-13536
▁Parents	-13537
▁cartoon	-13538
▁surveys	-13539
▁Discount	-13540
▁athletic	-13541
▁ceilings	-13542
▁searches	-13543
▁algorithm	-13544
▁maintains	-13545
▁attributes	-13546
▁unnecessary	-13547
DI	-13548
▁10:	-13549
▁192	-13550
astics	-13551
▁digit	-13552
▁wrist	-13553
keeping	-13554
▁styling	-13555
itutional	-13556
▁Nintendo	-13557
▁promotes	-13558
▁publicly	-13559
▁disadvant	-13560
▁Elementary	-13561
▁mechanisms	-13562
check	-13563
▁Sheet	-13564
▁Chelsea	-13565
▁Display	-13566
▁Francis	-13567
▁barrier	-13568
▁sliding	-13569
▁abandoned	-13570
▁preference	-13571
▁reflection	-13572
raw	-13573
cend	-13574
▁Jet	-13575
▁Typ	-13576
▁mum	-13577
▁hike	-13578
▁burst	-13579
▁queen	-13580
artered	-13581
▁Puerto	-13582
▁sunset	-13583
▁volunt	-13584
▁Roberts	-13585
▁pumpkin	-13586
▁deciding	-13587
▁performs	-13588
ographical	-13589
ISH	-13590
olt	-13591
▁Cad	-13592
▁Tile	-13593
rieved	-13594
▁freel	-13595
▁gains	-13596
ampagne	-13597
▁depict	-13598
▁warmer	-13599
▁Vintage	-13600
▁planted	-13601
▁prosper	-13602
▁bracelet	-13603
▁celebrity	-13604
▁attraction	-13605
▁exhibitions	-13606
▁limitations	-13607
▁09	-13608
▁AF	-13609
▁XP	-13610
esis	-13611
▁Hat	-13612
▁Pine	-13613
▁prox	-13614
▁Villa	-13615
itarian	-13616
▁gluten	-13617
▁scream	-13618
▁worthy	-13619
▁offline	-13620
▁blossoms	-13621
▁leverage	-13622
▁footprint	-13623
▁thickness	-13624
▁CF	-13625
▁dip	-13626
▁Gear	-13627
▁Khan	-13628
▁syrup	-13629
▁valve	-13630
▁Nelson	-13631
irations	-13632
▁romance	-13633
▁sleeves	-13634
▁varying	-13635
▁workflow	-13636
▁additionally	-13637
dig	-13638
ski	-13639
▁FC	-13640
▁Ga	-13641
▁Cant	-13642
ometry	-13643
▁Doors	-13644
▁wides	-13645
commend	-13646
ensional	-13647
▁transit	-13648
▁Clinical	-13649
▁restored	-13650
▁interpretation	-13651
ONE	-13652
iah	-13653
ogram	-13654
houses	-13655
▁Going	-13656
▁blame	-13657
▁stair	-13658
▁Rivers	-13659
▁stabil	-13660
▁Military	-13661
▁permitted	-13662
▁Discussion	-13663
▁biological	-13664
▁combinations	-13665
Us	-13666
▁000	-13667
▁Arc	-13668
▁Ian	-13669
andal	-13670
▁Nord	-13671
herent	-13672
▁Train	-13673
▁bonds	-13674
▁femin	-13675
▁squee	-13676
▁Hotels	-13677
▁tempor	-13678
▁Princip	-13679
irmingham	-13680
▁structured	-13681
▁Traditional	-13682
▁FM	-13683
ampa	-13684
arms	-13685
loyd	-13686
▁Boo	-13687
▁stap	-13688
▁turb	-13689
▁Imagine	-13690
▁insured	-13691
ropractic	-13692
▁prevents	-13693
▁SL	-13694
heet	-13695
offs	-13696
color	-13697
called	-13698
▁camps	-13699
▁safer	-13700
▁steep	-13701
▁inviting	-13702
▁Louisiana	-13703
▁accepting	-13704
▁transformed	-13705
IAL	-13706
aru	-13707
▁53	-13708
logy	-13709
mega	-13710
▁hammer	-13711
▁themed	-13712
▁Ukraine	-13713
▁depressed	-13714
▁calculated	-13715
▁obligation	-13716
eled	-13717
▁NOW	-13718
▁Pap	-13719
▁Alice	-13720
▁condo	-13721
▁Article	-13722
▁Denmark	-13723
▁folding	-13724
▁posters	-13725
▁planting	-13726
rys	-13727
▁Alt	-13728
▁SMS	-13729
bling	-13730
▁Dise	-13731
▁Glen	-13732
▁REAL	-13733
▁Singh	-13734
▁Yahoo	-13735
▁argue	-13736
▁barbe	-13737
▁cryst	-13738
▁fails	-13739
▁pound	-13740
▁repos	-13741
▁Compos	-13742
▁timber	-13743
▁Plastic	-13744
▁blocked	-13745
▁strictly	-13746
▁excessive	-13747
▁Nevertheless	-13748
Hot	-13749
▁$7	-13750
will	-13751
▁202	-13752
▁Hem	-13753
start	-13754
▁fond	-13755
▁spine	-13756
▁Athlet	-13757
▁hairst	-13758
▁Charlie	-13759
▁Flowers	-13760
▁Orleans	-13761
▁Version	-13762
▁matched	-13763
▁Official	-13764
▁treasure	-13765
▁(7	-13766
ropri	-13767
▁Swim	-13768
forced	-13769
▁Jacob	-13770
▁clips	-13771
▁equip	-13772
closure	-13773
sterdam	-13774
▁Choice	-13775
▁Degree	-13776
▁binding	-13777
▁promoted	-13778
PO	-13779
who	-13780
yler	-13781
ensed	-13782
▁1998	-13783
▁Chand	-13784
▁Dougl	-13785
▁slice	-13786
crafted	-13787
▁cables	-13788
▁coated	-13789
▁spices	-13790
▁Morning	-13791
▁Nursing	-13792
▁affecting	-13793
ICK	-13794
acts	-13795
hess	-13796
▁buzz	-13797
itudes	-13798
▁beings	-13799
▁surviv	-13800
▁arrives	-13801
▁Agreement	-13802
▁concluded	-13803
▁strengths	-13804
PT	-13805
▁:)	-13806
▁PE	-13807
duct	-13808
▁(10	-13809
▁Sel	-13810
▁mph	-13811
getic	-13812
▁Mills	-13813
▁shame	-13814
▁Fisher	-13815
▁judges	-13816
▁biology	-13817
▁specify	-13818
▁chatting	-13819
▁Different	-13820
56	-13821
uct	-13822
▁EUR	-13823
▁Kel	-13824
▁unh	-13825
▁Fold	-13826
washer	-13827
▁punch	-13828
▁castle	-13829
▁sleeve	-13830
▁thrown	-13831
▁trades	-13832
▁Kennedy	-13833
▁dynamics	-13834
▁resolved	-13835
▁vitamins	-13836
▁accessory	-13837
agu	-13838
That	-13839
apse	-13840
▁Sau	-13841
▁Syn	-13842
▁beta	-13843
▁inev	-13844
▁Parks	-13845
▁exped	-13846
▁scent	-13847
▁holders	-13848
▁pendant	-13849
▁minimize	-13850
▁prospect	-13851
▁pursuing	-13852
▁composite	-13853
▁comprised	-13854
▁Healthcare	-13855
uri	-13856
▁Ger	-13857
▁nit	-13858
▁Clar	-13859
▁Sean	-13860
▁ampl	-13861
▁Krist	-13862
▁shake	-13863
▁spouse	-13864
▁static	-13865
▁chamber	-13866
▁Richmond	-13867
▁beverage	-13868
▁retailer	-13869
▁utilized	-13870
▁precisely	-13871
▁functioning	-13872
▁surveillance	-13873
▁complications	-13874
NG	-13875
gins	-13876
▁cone	-13877
▁nurt	-13878
▁Cable	-13879
▁Woman	-13880
▁arise	-13881
▁deput	-13882
▁domin	-13883
▁Dinner	-13884
▁fisher	-13885
▁beneath	-13886
▁attempted	-13887
▁jewellery	-13888
▁grandchildren	-13889
mus	-13890
boro	-13891
ested	-13892
▁Beth	-13893
▁Bris	-13894
▁Pant	-13895
▁barn	-13896
▁flip	-13897
▁Stick	-13898
▁Tiger	-13899
▁flows	-13900
▁ginger	-13901
▁linear	-13902
▁Episode	-13903
▁archive	-13904
▁volumes	-13905
▁Publisher	-13906
▁comprises	-13907
▁particles	-13908
▁landscapes	-13909
▁profitable	-13910
bn	-13911
asa	-13912
tor	-13913
▁Ay	-13914
arma	-13915
ingo	-13916
lift	-13917
▁Chev	-13918
▁assure	-13919
▁contam	-13920
▁forums	-13921
▁throat	-13922
▁clinics	-13923
▁failing	-13924
▁palette	-13925
▁governor	-13926
▁honestly	-13927
▁pharmacy	-13928
▁disciplines	-13929
▁optimization	-13930
▁significance	-13931
▁Hit	-13932
anium	-13933
▁Pent	-13934
osures	-13935
▁2,000	-13936
▁Citiz	-13937
▁lively	-13938
boarding	-13939
▁domains	-13940
▁refined	-13941
▁Jonathan	-13942
▁counties	-13943
▁verified	-13944
▁secretary	-13945
▁compelling	-13946
▁economical	-13947
▁promotions	-13948
▁separation	-13949
bat	-13950
▁jog	-13951
ateur	-13952
stage	-13953
▁....	-13954
▁Hence	-13955
▁ignore	-13956
▁riders	-13957
▁figured	-13958
▁enrolled	-13959
▁approaching	-13960
ACE	-13961
▁BA	-13962
▁LG	-13963
assy	-13964
emor	-13965
▁Aid	-13966
etics	-13967
trans	-13968
▁Syria	-13969
▁threw	-13970
▁Around	-13971
▁typhoon	-13972
▁mounting	-13973
▁Generally	-13974
▁affiliated	-13975
▁distribute	-13976
▁EL	-13977
▁TA	-13978
eals	-13979
rine	-13980
▁LCD	-13981
▁dub	-13982
▁Soph	-13983
▁Todd	-13984
▁Ghana	-13985
▁Initi	-13986
▁Looks	-13987
iculous	-13988
▁Linked	-13989
▁Collins	-13990
▁synthes	-13991
▁Managing	-13992
▁blogging	-13993
▁catching	-13994
▁Edinburgh	-13995
▁narrative	-13996
▁reflected	-13997
▁schedules	-13998
▁qualification	-13999
At	-14000
Res	-14001
cam	-14002
▁PT	-14003
thon	-14004
type	-14005
▁rac	-14006
ggers	-14007
▁Nike	-14008
▁bean	-14009
▁bump	-14010
▁lane	-14011
itated	-14012
▁Walker	-14013
▁cottage	-14014
▁thereby	-14015
▁transfers	-14016
▁ingredient	-14017
▁transparency	-14018
PP	-14019
▁DM	-14020
▁Sud	-14021
ioxid	-14022
pread	-14023
▁HVAC	-14024
▁Mirr	-14025
▁Rene	-14026
▁Shin	-14027
▁WiFi	-14028
▁incon	-14029
▁indul	-14030
▁manga	-14031
▁Cotton	-14032
▁Former	-14033
▁Moving	-14034
▁Racing	-14035
▁excuse	-14036
▁vector	-14037
▁Birmingham	-14038
▁correction	-14039
▁downloading	-14040
▁Ku	-14041
grow	-14042
ivic	-14043
▁Esc	-14044
▁sel	-14045
▁Duke	-14046
▁Orth	-14047
▁medal	-14048
▁Coming	-14049
▁partial	-14050
▁Concrete	-14051
▁promptly	-14052
▁discusses	-14053
▁spokesman	-14054
▁Revolution	-14055
▁credential	-14056
▁deployment	-14057
▁politicians	-14058
▁qualifications	-14059
OUR	-14060
dis	-14061
dle	-14062
▁(0	-14063
▁arc	-14064
▁dot	-14065
▁Zone	-14066
▁sake	-14067
▁Honey	-14068
▁ample	-14069
▁Dublin	-14070
▁Proble	-14071
▁attain	-14072
▁happier	-14073
▁explaining	-14074
▁practitioners	-14075
def	-14076
▁!!	-14077
▁12-	-14078
▁CBD	-14079
ierra	-14080
▁Fran	-14081
▁Gard	-14082
▁Prop	-14083
▁perf	-14084
ainted	-14085
▁Agent	-14086
▁rivers	-14087
▁thrive	-14088
▁Consumer	-14089
▁journalist	-14090
▁Mediterranean	-14091
,’	-14092
NET	-14093
base	-14094
▁Guy	-14095
,000,	-14096
▁Bike	-14097
▁Cake	-14098
▁2007,	-14099
▁Karen	-14100
▁Sugar	-14101
▁acids	-14102
▁glory	-14103
▁thumb	-14104
▁Advert	-14105
▁praise	-14106
▁shield	-14107
▁Comment	-14108
▁inquiry	-14109
mentation	-14110
▁Franklin	-14111
▁Chocolate	-14112
▁cognitive	-14113
▁sustained	-14114
▁provisions	-14115
▁associations	-14116
51	-14117
IZ	-14118
/19	-14119
▁EV	-14120
▁Ale	-14121
▁Nan	-14122
▁vig	-14123
▁ought	-14124
▁Dakota	-14125
▁Peters	-14126
▁Stream	-14127
▁crimes	-14128
▁joints	-14129
▁solved	-14130
▁sooner	-14131
▁Olympics	-14132
▁dropping	-14133
▁Amsterdam	-14134
▁corporation	-14135
▁conveniently	-14136
▁psychological	-14137
TD	-14138
uffy	-14139
cedes	-14140
innam	-14141
woman	-14142
▁Cafe	-14143
▁Init	-14144
▁Match	-14145
▁Woods	-14146
▁backs	-14147
▁gonna	-14148
▁poems	-14149
▁sheep	-14150
▁socks	-14151
▁creamy	-14152
▁sewing	-14153
orkshire	-14154
▁Improve	-14155
▁releasing	-14156
▁mainstream	-14157
Ed	-14158
itime	-14159
▁pads	-14160
▁pose	-14161
arming	-14162
▁Seoul	-14163
▁deter	-14164
▁picks	-14165
▁reson	-14166
▁lining	-14167
▁trauma	-14168
▁Knowledge	-14169
▁fellowship	-14170
▁overlooking	-14171
▁dramatically	-14172
nai	-14173
▁Tab	-14174
▁Tut	-14175
▁yog	-14176
▁Appl	-14177
▁feas	-14178
outube	-14179
▁Allow	-14180
▁profic	-14181
▁needing	-14182
▁arriving	-14183
▁villages	-14184
▁offensive	-14185
▁guarantees	-14186
▁recreation	-14187
.).	-14188
Mar	-14189
ere	-14190
omer	-14191
rock	-14192
▁Wide	-14193
▁mint	-14194
shaped	-14195
▁elite	-14196
curement	-14197
function	-14198
▁Funeral	-14199
▁Heights	-14200
▁deleted	-14201
▁develops	-14202
▁unwanted	-14203
▁shoulders	-14204
▁attempting	-14205
▁underneath	-14206
ele	-14207
▁**	-14208
▁5:	-14209
▁kg	-14210
author	-14211
▁trace	-14212
▁Circle	-14213
▁clouds	-14214
▁donors	-14215
▁duplic	-14216
▁Russell	-14217
▁moistur	-14218
▁galleries	-14219
▁influences	-14220
81	-14221
BB	-14222
ulu	-14223
▁Mob	-14224
▁Obs	-14225
▁Spl	-14226
oples	-14227
phony	-14228
▁Pret	-14229
▁Rece	-14230
▁2006.	-14231
▁addict	-14232
▁festive	-14233
▁nursery	-14234
▁delightful	-14235
▁implications	-14236
Eng	-14237
roe	-14238
▁Mi	-14239
▁rh	-14240
icone	-14241
▁Wash	-14242
hedral	-14243
▁Flower	-14244
▁Others	-14245
▁Rachel	-14246
▁execute	-14247
▁Columbus	-14248
▁compress	-14249
▁sunlight	-14250
▁locksmith	-14251
)?	-14252
fu	-14253
▁66	-14254
▁BS	-14255
ardo	-14256
otto	-14257
▁GRE	-14258
▁Unc	-14259
▁Gill	-14260
▁Serve	-14261
▁embra	-14262
▁penet	-14263
▁zones	-14264
▁Candid	-14265
▁beside	-14266
▁showers	-14267
▁Brisbane	-14268
▁premiere	-14269
▁proceeds	-14270
▁databases	-14271
▁spreading	-14272
▁perspectives	-14273
▁institutional	-14274
ón	-14275
▁Pix	-14276
arios	-14277
▁Left	-14278
▁cram	-14279
ooting	-14280
▁fairy	-14281
▁Indeed	-14282
▁jumping	-14283
▁educated	-14284
▁passport	-14285
▁profound	-14286
▁fragrance	-14287
▁cryptocurrency	-14288
▁02	-14289
▁Eco	-14290
▁toe	-14291
itual	-14292
▁Roger	-14293
▁incom	-14294
▁stain	-14295
▁Instru	-14296
▁harness	-14297
▁Recovery	-14298
▁variables	-14299
▁approached	-14300
▁infections	-14301
▁submitting	-14302
▁determination	-14303
En	-14304
OCK	-14305
non	-14306
▁Gy	-14307
amas	-14308
▁craw	-14309
▁Czech	-14310
▁Graham	-14311
▁bullet	-14312
▁drying	-14313
▁fought	-14314
▁troops	-14315
oriented	-14316
▁Freedom	-14317
▁replied	-14318
▁neighborhoods	-14319
▁accommodations	-14320
▁straightforward	-14321
''	-14322
.-	-14323
7%	-14324
NC	-14325
▁51	-14326
▁Ens	-14327
atern	-14328
▁Dear	-14329
▁deer	-14330
▁fears	-14331
▁Sounds	-14332
▁Liberty	-14333
▁forming	-14334
▁garbage	-14335
▁Champion	-14336
▁costumes	-14337
▁deserves	-14338
▁acclaimed	-14339
▁Electrical	-14340
▁satisfying	-14341
bet	-14342
▁Ble	-14343
▁Pun	-14344
▁Delta	-14345
▁Stage	-14346
▁armed	-14347
▁modes	-14348
▁lineup	-14349
▁refurb	-14350
▁ruling	-14351
▁Broadway	-14352
▁energetic	-14353
▁innovations	-14354
uke	-14355
ivan	-14356
▁Exc	-14357
astro	-14358
▁Airl	-14359
▁lear	-14360
inders	-14361
▁Aaron	-14362
bitious	-14363
viously	-14364
▁exotic	-14365
▁Reviews	-14366
▁anxious	-14367
▁blanket	-14368
▁Breakfast	-14369
▁Economics	-14370
▁violation	-14371
▁bankruptcy	-14372
▁governance	-14373
Pr	-14374
bey	-14375
▁pc	-14376
▁Rio	-14377
bucks	-14378
▁guns	-14379
mented	-14380
▁Baker	-14381
▁lever	-14382
looking	-14383
▁Empire	-14384
▁cloudy	-14385
▁portray	-14386
▁schemes	-14387
▁tobacco	-14388
▁receiver	-14389
▁Southeast	-14390
▁paragraph	-14391
▁performers	-14392
▁qualifying	-14393
▁technician	-14394
▁Replacement	-14395
▁mathematics	-14396
▁mi	-14397
pert	-14398
▁2-3	-14399
encer	-14400
▁Earn	-14401
▁fres	-14402
▁lace	-14403
▁PayPal	-14404
▁modest	-14405
▁Tonight	-14406
▁Brothers	-14407
▁marathon	-14408
▁stickers	-14409
▁simulation	-14410
asg	-14411
lon	-14412
quo	-14413
▁DS	-14414
▁Kum	-14415
▁1997	-14416
▁Firm	-14417
▁dict	-14418
▁Winds	-14419
▁beads	-14420
ountain	-14421
▁Copper	-14422
▁crying	-14423
▁differ	-14424
▁fertil	-14425
▁interf	-14426
▁Question	-14427
▁seemingly	-14428
DE	-14429
ede	-14430
cost	-14431
▁Alz	-14432
▁kay	-14433
▁nan	-14434
▁Cass	-14435
▁jury	-14436
▁kiss	-14437
▁quiz	-14438
▁spat	-14439
▁Adams	-14440
▁Cards	-14441
▁Evans	-14442
▁joins	-14443
▁tends	-14444
▁killer	-14445
▁emerged	-14446
▁legally	-14447
▁notable	-14448
▁Engineer	-14449
▁explored	-14450
▁convinced	-14451
▁obtaining	-14452
▁partnered	-14453
▁Industries	-14454
▁afterwards	-14455
▁diagnostic	-14456
▁participant	-14457
Col	-14458
▁SAP	-14459
borne	-14460
rament	-14461
▁reset	-14462
▁Career	-14463
▁chrome	-14464
▁suites	-14465
▁Tourism	-14466
▁violent	-14467
▁elegance	-14468
▁Excellence	-14469
▁circulation	-14470
▁grandfather	-14471
▁supervision	-14472
▁communicating	-14473
div	-14474
iot	-14475
▁IR	-14476
▁Bos	-14477
▁Upper	-14478
▁logic	-14479
▁absorb	-14480
▁summit	-14481
▁Finding	-14482
▁Options	-14483
▁Michelle	-14484
▁advocacy	-14485
▁executed	-14486
▁exhausted	-14487
▁instances	-14488
.’	-14489
Or	-14490
bay	-14491
▁Cob	-14492
▁Ore	-14493
rogen	-14494
celain	-14495
hester	-14496
▁woods	-14497
▁mentor	-14498
▁sturdy	-14499
▁extends	-14500
▁helicop	-14501
▁permits	-14502
▁Wholesale	-14503
▁intuitive	-14504
▁Queensland	-14505
▁landscaping	-14506
ATA	-14507
stud	-14508
▁130	-14509
▁FDA	-14510
▁Fem	-14511
ulent	-14512
▁Ther	-14513
▁junk	-14514
▁palm	-14515
▁Offer	-14516
▁arbit	-14517
▁blast	-14518
▁crust	-14519
▁stiff	-14520
▁Deputy	-14521
▁cousin	-14522
▁Luckily	-14523
▁crossed	-14524
▁cushion	-14525
▁pension	-14526
▁Platform	-14527
▁declined	-14528
▁judgment	-14529
▁Otherwise	-14530
▁Yorkshire	-14531
▁enthusiastic	-14532
HR	-14533
mir	-14534
izon	-14535
▁avo	-14536
▁quad	-14537
▁vegg	-14538
▁Guest	-14539
▁Truck	-14540
attered	-14541
▁Trading	-14542
▁ethical	-14543
▁Campaign	-14544
▁Nashville	-14545
▁abundance	-14546
▁calculate	-14547
▁phenomenon	-14548
asis	-14549
lett	-14550
▁Joh	-14551
▁Nok	-14552
▁Pure	-14553
▁hadn	-14554
icular	-14555
umatic	-14556
wiches	-14557
▁blues	-14558
▁capac	-14559
▁crops	-14560
▁farms	-14561
▁subway	-14562
▁Surgery	-14563
▁Wireless	-14564
▁beginners	-14565
▁injection	-14566
▁licensing	-14567
▁Laboratory	-14568
▁attachment	-14569
▁populations	-14570
▁03	-14571
ando	-14572
aris	-14573
html	-14574
▁Cav	-14575
▁Kap	-14576
quire	-14577
▁Kick	-14578
▁Kirk	-14579
▁intr	-14580
▁nour	-14581
forter	-14582
▁Plate	-14583
▁tasted	-14584
▁happily	-14585
▁runners	-14586
▁Schedule	-14587
▁youngest	-14588
▁exquisite	-14589
IES	-14590
bec	-14591
▁59	-14592
tube	-14593
aneous	-14594
anners	-14595
icated	-14596
▁Spect	-14597
▁Carbon	-14598
▁Teaching	-14599
▁repaired	-14600
▁Originally	-14601
▁determining	-14602
▁proprietary	-14603
IK	-14604
Sp	-14605
ifi	-14606
jet	-14607
▁05	-14608
thal	-14609
▁19.	-14610
phalt	-14611
▁Jerry	-14612
▁Larry	-14613
▁Notes	-14614
▁Remod	-14615
▁uphol	-14616
▁Switch	-14617
▁banner	-14618
▁timeless	-14619
▁controversial	-14620
▁investigating	-14621
NE	-14622
DAY	-14623
oro	-14624
oard	-14625
rimp	-14626
▁ONE	-14627
▁tan	-14628
imity	-14629
▁Hell	-14630
▁Laser	-14631
▁defic	-14632
▁lamps	-14633
▁urgent	-14634
▁modeling	-14635
▁petition	-14636
▁Interested	-14637
▁occasional	-14638
▁reservations	-14639
40.	-14640
▁$2.	-14641
▁PVC	-14642
▁Bart	-14643
▁Priv	-14644
▁acre	-14645
▁gown	-14646
▁shaft	-14647
▁Cities	-14648
▁loyalty	-14649
▁behaviors	-14650
▁encompass	-14651
▁collaborate	-14652
71	-14653
▁BY	-14654
▁MAN	-14655
▁MBA	-14656
akery	-14657
quest	-14658
listed	-14659
▁Nepal	-14660
▁silly	-14661
▁tanks	-14662
▁Guarant	-14663
▁delayed	-14664
▁cylinder	-14665
▁outreach	-14666
▁Standards	-14667
▁reactions	-14668
▁illustration	-14669
▁photographers	-14670
fil	-14671
uxe	-14672
▁Rat	-14673
▁Deck	-14674
▁alloy	-14675
▁fract	-14676
▁india	-14677
▁bamboo	-14678
▁outline	-14679
▁Cultural	-14680
▁horrible	-14681
▁Northwest	-14682
▁Wikipedia	-14683
▁ambitious	-14684
▁identical	-14685
▁demonstration	-14686
cap	-14687
▁Ub	-14688
▁Ug	-14689
irus	-14690
onde	-14691
▁Risk	-14692
▁trio	-14693
▁bacon	-14694
▁coinc	-14695
▁stead	-14696
▁Harbor	-14697
▁sweets	-14698
▁examined	-14699
▁sandwich	-14700
▁Automatic	-14701
▁Maintenance	-14702
▁specializing	-14703
Ps	-14704
-25	-14705
bye	-14706
mic	-14707
▁Ts	-14708
eing	-14709
ttes	-14710
▁Info	-14711
cology	-14712
▁Horse	-14713
▁mirrors	-14714
▁Agriculture	-14715
▁Competition	-14716
▁comfortably	-14717
▁journalists	-14718
Can	-14719
▁Wear	-14720
▁spite	-14721
▁coding	-14722
▁backdrop	-14723
▁sciences	-14724
▁educators	-14725
▁specification	-14726
adi	-14727
got	-14728
▁06	-14729
bris	-14730
gans	-14731
heat	-14732
mons	-14733
omas	-14734
▁WOR	-14735
▁mes	-14736
▁anth	-14737
▁soda	-14738
lasses	-14739
▁Keith	-14740
▁Moham	-14741
▁Pearl	-14742
▁hello	-14743
inction	-14744
install	-14745
▁apples	-14746
▁bucket	-14747
▁learnt	-14748
▁traged	-14749
▁Climate	-14750
▁broader	-14751
▁analysts	-14752
▁reserves	-14753
▁households	-14754
▁substances	-14755
iov	-14756
irs	-14757
▁Cub	-14758
ailed	-14759
click	-14760
kward	-14761
▁Worth	-14762
▁brave	-14763
▁gauge	-14764
▁Rather	-14765
▁Warren	-14766
▁tailor	-14767
▁Provide	-14768
▁Stewart	-14769
▁fortune	-14770
▁claiming	-14771
▁earrings	-14772
▁goodness	-14773
▁mandatory	-14774
▁variation	-14775
▁instructors	-14776
▁preliminary	-14777
▁sightseeing	-14778
▁scholarships	-14779
OLD	-14780
oba	-14781
ogs	-14782
▁Il	-14783
▁Fif	-14784
odont	-14785
▁Dete	-14786
▁sang	-14787
▁Prest	-14788
innamon	-14789
▁lenders	-14790
▁vinegar	-14791
▁Flooring	-14792
▁Specific	-14793
▁counting	-14794
▁criticism	-14795
▁targeting	-14796
▁selections	-14797
gue	-14798
keys	-14799
▁!!!	-14800
▁Anc	-14801
icals	-14802
▁Eagle	-14803
▁sights	-14804
▁furnish	-14805
▁outlook	-14806
▁crushers	-14807
▁imagined	-14808
▁blockchain	-14809
▁resolutions	-14810
▁subscribers	-14811
▁Manufacturing	-14812
▁Ye	-14813
▁Fal	-14814
▁Opera	-14815
▁Pizza	-14816
▁Vista	-14817
lishing	-14818
▁deemed	-14819
▁jumped	-14820
▁shorts	-14821
▁worries	-14822
▁appearances	-14823
▁3)	-14824
ader	-14825
▁Ald	-14826
▁ine	-14827
▁sew	-14828
ended	-14829
iston	-14830
story	-14831
▁Same	-14832
▁Rated	-14833
▁ankle	-14834
▁badge	-14835
▁quoted	-14836
▁Theater	-14837
▁columns	-14838
▁circular	-14839
▁composer	-14840
▁disagree	-14841
▁rejected	-14842
▁reviewing	-14843
▁Specialist	-14844
▁intersection	-14845
▁Ko	-14846
▁365	-14847
▁vet	-14848
▁bears	-14849
▁Ashley	-14850
▁creator	-14851
▁dispute	-14852
▁evident	-14853
▁evolved	-14854
▁traders	-14855
▁Airlines	-14856
▁Mercedes	-14857
▁humanity	-14858
▁laughing	-14859
▁Orchestra	-14860
▁sculpture	-14861
▁enthusiasts	-14862
▁orientation	-14863
▁Intelligence	-14864
▁commissioned	-14865
▁coordination	-14866
▁07	-14867
▁ug	-14868
phed	-14869
▁Hab	-14870
▁fax	-14871
▁tel	-14872
wheel	-14873
▁impr	-14874
iosity	-14875
itants	-14876
▁marry	-14877
▁Impact	-14878
▁exempt	-14879
▁tenants	-14880
▁seminars	-14881
▁incidents	-14882
▁convention	-14883
BL	-14884
oT	-14885
-16	-14886
/10	-14887
▁AK	-14888
▁HT	-14889
camp	-14890
▁Nam	-14891
iquid	-14892
▁Bake	-14893
▁Fram	-14894
▁knit	-14895
normal	-14896
▁Joint	-14897
▁borders	-14898
▁customs	-14899
▁japanese	-14900
▁defensive	-14901
▁retention	-14902
▁challenged	-14903
▁Lan	-14904
▁Nat	-14905
elong	-14906
lette	-14907
▁Dual	-14908
▁Hend	-14909
▁Billy	-14910
▁engra	-14911
itating	-14912
parents	-14913
▁Alumin	-14914
▁binary	-14915
▁Holland	-14916
▁sailing	-14917
▁seventh	-14918
▁Document	-14919
▁clearance	-14920
▁widespread	-14921
53	-14922
OO	-14923
▁AA	-14924
0000	-14925
▁Pel	-14926
ieval	-14927
▁Merc	-14928
▁Norm	-14929
▁Rice	-14930
▁villa	-14931
▁Camera	-14932
▁Morris	-14933
▁expects	-14934
▁stepped	-14935
▁advisory	-14936
▁indicator	-14937
▁assessments	-14938
▁organizational	-14939
▁environmentally	-14940
HC	-14941
aman	-14942
hero	-14943
▁Mak	-14944
▁Tes	-14945
▁pile	-14946
ridges	-14947
▁poker	-14948
▁corros	-14949
________	-14950
▁flowing	-14951
▁glitter	-14952
▁spirits	-14953
▁antioxid	-14954
▁reputable	-14955
▁demonstrates	-14956
She	-14957
aph	-14958
lie	-14959
▁Ja	-14960
▁NZ	-14961
qual	-14962
▁RES	-14963
▁cav	-14964
ingle	-14965
▁cree	-14966
▁fier	-14967
▁inject	-14968
▁License	-14969
▁chapters	-14970
▁compiled	-14971
▁keywords	-14972
▁touching	-14973
▁subtitles	-14974
▁engineered	-14975
▁perception	-14976
▁methodology	-14977
-40	-14978
mill	-14979
rand	-14980
▁NSW	-14981
▁aug	-14982
smith	-14983
urring	-14984
▁5,000	-14985
▁Flore	-14986
▁Swift	-14987
▁persu	-14988
itories	-14989
▁banned	-14990
▁heroes	-14991
▁unders	-14992
▁Douglas	-14993
▁Payment	-14994
▁Regular	-14995
▁Reports	-14996
▁Various	-14997
▁Vitamin	-14998
▁lifting	-14999
▁readily	-15000
▁Progress	-15001
▁avoiding	-15002
▁pipeline	-15003
▁Mountains	-15004
▁disappear	-15005
▁fortunate	-15006
▁furnished	-15007
▁renovated	-15008
▁Consulting	-15009
▁kilometers	-15010
▁destruction	-15011
abe	-15012
iga	-15013
▁30%	-15014
▁Swe	-15015
▁Tob	-15016
brook	-15017
▁Cany	-15018
uggage	-15019
▁Voice	-15020
▁couch	-15021
▁admire	-15022
▁greens	-15023
▁Counsel	-15024
▁Testing	-15025
▁boutique	-15026
▁carriers	-15027
▁kindness	-15028
▁referring	-15029
▁discrimination	-15030
hal	-15031
anqu	-15032
anut	-15033
avil	-15034
nell	-15035
email	-15036
ocket	-15037
[...]
